{
  "version": "1.0",
  "truncation": null,
  "padding": null,
  "added_tokens": [
    {
      "id": 0,
      "content": "[UNK]",
      "single_word": false,
      "lstrip": false,
      "rstrip": false,
      "normalized": false,
      "special": true
    },
    {
      "id": 1,
      "content": "[PAD]",
      "single_word": false,
      "lstrip": false,
      "rstrip": false,
      "normalized": false,
      "special": true
    },
    {
      "id": 2,
      "content": "[CLS]",
      "single_word": false,
      "lstrip": false,
      "rstrip": false,
      "normalized": false,
      "special": true
    },
    {
      "id": 3,
      "content": "[SEP]",
      "single_word": false,
      "lstrip": false,
      "rstrip": false,
      "normalized": false,
      "special": true
    },
    {
      "id": 4,
      "content": "[MASK]",
      "single_word": false,
      "lstrip": false,
      "rstrip": false,
      "normalized": false,
      "special": true
    }
  ],
  "normalizer": null,
  "pre_tokenizer": {
    "type": "Whitespace"
  },
  "post_processor": null,
  "decoder": null,
  "model": {
    "type": "BPE",
    "dropout": null,
    "unk_token": null,
    "continuing_subword_prefix": null,
    "end_of_word_suffix": null,
    "fuse_unk": false,
    "byte_fallback": true,
    "ignore_merges": false,
    "vocab": {
      "[UNK]": 0,
      "[PAD]": 1,
      "[CLS]": 2,
      "[SEP]": 3,
      "[MASK]": 4,
      "!": 5,
      "#": 6,
      "%": 7,
      "(": 8,
      ")": 9,
      "+": 10,
      ",": 11,
      "-": 12,
      ".": 13,
      "/": 14,
      "0": 15,
      "1": 16,
      "2": 17,
      "3": 18,
      "4": 19,
      "5": 20,
      "6": 21,
      "7": 22,
      "8": 23,
      "9": 24,
      ":": 25,
      ";": 26,
      "?": 27,
      "@": 28,
      "A": 29,
      "B": 30,
      "C": 31,
      "D": 32,
      "E": 33,
      "F": 34,
      "G": 35,
      "H": 36,
      "I": 37,
      "K": 38,
      "L": 39,
      "M": 40,
      "N": 41,
      "O": 42,
      "P": 43,
      "R": 44,
      "S": 45,
      "T": 46,
      "U": 47,
      "V": 48,
      "W": 49,
      "X": 50,
      "Z": 51,
      "_": 52,
      "`": 53,
      "a": 54,
      "b": 55,
      "c": 56,
      "d": 57,
      "e": 58,
      "f": 59,
      "g": 60,
      "h": 61,
      "i": 62,
      "j": 63,
      "k": 64,
      "l": 65,
      "m": 66,
      "n": 67,
      "o": 68,
      "p": 69,
      "q": 70,
      "r": 71,
      "s": 72,
      "t": 73,
      "u": 74,
      "v": 75,
      "w": 76,
      "x": 77,
      "y": 78,
      "z": 79,
      "«": 80,
      "»": 81,
      "Æ": 82,
      "×": 83,
      "á": 84,
      "æ": 85,
      "ö": 86,
      "ʹ": 87,
      "̆": 88,
      "̓": 89,
      "А": 90,
      "Б": 91,
      "В": 92,
      "Г": 93,
      "Д": 94,
      "Е": 95,
      "Ж": 96,
      "З": 97,
      "И": 98,
      "Й": 99,
      "К": 100,
      "Л": 101,
      "М": 102,
      "Н": 103,
      "О": 104,
      "П": 105,
      "Р": 106,
      "С": 107,
      "Т": 108,
      "У": 109,
      "Ф": 110,
      "Х": 111,
      "Ц": 112,
      "Ч": 113,
      "Ш": 114,
      "Щ": 115,
      "Ъ": 116,
      "Ы": 117,
      "Ь": 118,
      "Э": 119,
      "Ю": 120,
      "Я": 121,
      "а": 122,
      "б": 123,
      "в": 124,
      "г": 125,
      "д": 126,
      "е": 127,
      "ж": 128,
      "з": 129,
      "и": 130,
      "й": 131,
      "к": 132,
      "л": 133,
      "м": 134,
      "н": 135,
      "о": 136,
      "п": 137,
      "р": 138,
      "с": 139,
      "т": 140,
      "у": 141,
      "ф": 142,
      "х": 143,
      "ц": 144,
      "ч": 145,
      "ш": 146,
      "щ": 147,
      "ъ": 148,
      "ы": 149,
      "ь": 150,
      "э": 151,
      "ю": 152,
      "я": 153,
      "ё": 154,
      "ӕ": 155,
      "​": 156,
      "‒": 157,
      "–": 158,
      "—": 159,
      "‘": 160,
      "’": 161,
      "“": 162,
      "”": 163,
      "…": 164,
      "№": 165,
      "он": 166,
      "ты": 167,
      "æн": 168,
      "мæ": 169,
      "тæ": 170,
      "æр": 171,
      "уы": 172,
      "ад": 173,
      "ст": 174,
      "йы": 175,
      "ар": 176,
      "ын": 177,
      "æмæ": 178,
      "ра": 179,
      "дз": 180,
      "ах": 181,
      "ин": 182,
      "аг": 183,
      "æс": 184,
      "ен": 185,
      "æг": 186,
      "æй": 187,
      "ор": 188,
      "ан": 189,
      "дж": 190,
      "ат": 191,
      "ал": 192,
      "ер": 193,
      "ай": 194,
      "сты": 195,
      "ды": 196,
      "æм": 197,
      "ци": 198,
      "æл": 199,
      "ик": 200,
      "те": 201,
      "та": 202,
      "ом": 203,
      "джы": 204,
      "ив": 205,
      "уыр": 206,
      "æх": 207,
      "дæр": 208,
      "ой": 209,
      "ны": 210,
      "æт": 211,
      "аз": 212,
      "си": 213,
      "цы": 214,
      "ол": 215,
      "ур": 216,
      "хъ": 217,
      "кæн": 218,
      "ог": 219,
      "ди": 220,
      "ент": 221,
      "кт": 222,
      "ахуыр": 223,
      "пр": 224,
      "ау": 225,
      "æд": 226,
      "адон": 227,
      "од": 228,
      "æз": 229,
      "æйы": 230,
      "сæн": 231,
      "ре": 232,
      "ку": 233,
      "ры": 234,
      "ба": 235,
      "ады": 236,
      "æв": 237,
      "тæн": 238,
      "кон": 239,
      "уд": 240,
      "хай": 241,
      "ЦИ": 242,
      "ист": 243,
      "той": 244,
      "оны": 245,
      "ун": 246,
      "ыл": 247,
      "куы": 248,
      "кæнын": 249,
      "гæн": 250,
      "код": 251,
      "ПУ": 252,
      "аты": 253,
      "ЦИПУ": 254,
      "къ": 255,
      "дзин": 256,
      "удент": 257,
      "сп": 258,
      "про": 259,
      "сы": 260,
      "дзы": 261,
      "ль": 262,
      "гъ": 263,
      "æу": 264,
      "из": 265,
      "теты": 266,
      "фе": 267,
      "студент": 268,
      "онд": 269,
      "ерси": 270,
      "иверси": 271,
      "тæй": 272,
      "ир": 273,
      "æрæс": 274,
      "æрæсе": 275,
      "хуы": 276,
      "алон": 277,
      "универси": 278,
      "ам": 279,
      "фæ": 280,
      "архай": 281,
      "имæ": 282,
      "ийы": 283,
      "сæ": 284,
      "ис": 285,
      "рай": 286,
      "икон": 287,
      "иу": 288,
      "ов": 289,
      "Цæг": 290,
      "гæ": 291,
      "джытæ": 292,
      "ха": 293,
      "йæ": 294,
      "Цæгат": 295,
      "æстæ": 296,
      "дзæн": 297,
      "куль": 298,
      "ион": 299,
      "сс": 300,
      "адз": 301,
      "олог": 302,
      "рыст": 303,
      "бон": 304,
      "Ирыст": 305,
      "Ал": 306,
      "аци": 307,
      "ав": 308,
      "нау": 309,
      "рд": 310,
      "фæл": 311,
      "дон": 312,
      "зон": 313,
      "пп": 314,
      "æуы": 315,
      "ект": 316,
      "ид": 317,
      "Уæрæсе": 318,
      "сын": 319,
      "ит": 320,
      "азы": 321,
      "æттæ": 322,
      "сан": 323,
      "æны": 324,
      "нæ": 325,
      "æрд": 326,
      "уæл": 327,
      "Ирыстоны": 328,
      "дзысты": 329,
      "æтты": 330,
      "агъ": 331,
      "ем": 332,
      "университеты": 333,
      "ек": 334,
      "кодта": 335,
      "бын": 336,
      "дзинад": 337,
      "раз": 338,
      "кодтой": 339,
      "дзах": 340,
      "аддзах": 341,
      "Уæрæсейы": 342,
      "»-": 343,
      "тых": 344,
      "ед": 345,
      "тур": 346,
      "паддзах": 347,
      "ахуыргæн": 348,
      "цыд": 349,
      "Алан": 350,
      "Уы": 351,
      "мин": 352,
      "ет": 353,
      "ма": 354,
      "икæйы": 355,
      "бæр": 356,
      "ста": 357,
      "паддзахадон": 358,
      "кæ": 359,
      "ка": 360,
      "æст": 361,
      "им": 362,
      "джын": 363,
      "кур": 364,
      "æхсæн": 365,
      "сси": 366,
      "адæм": 367,
      "ктор": 368,
      "кæй": 369,
      "бл": 370,
      "ил": 371,
      "ном": 372,
      "фа": 373,
      "тæм": 374,
      "тыл": 375,
      "рав": 376,
      "ахъ": 377,
      "ком": 378,
      "хæй": 379,
      "дис": 380,
      "мы": 381,
      "уыд": 382,
      "тыххæй": 383,
      "рæз": 384,
      "ахуырадон": 385,
      "алы": 386,
      "æвз": 387,
      "гонд": 388,
      "ера": 389,
      "факуль": 390,
      "мæй": 391,
      "20": 392,
      "цæттæ": 393,
      "сæр": 394,
      "фы": 395,
      "истор": 396,
      "огра": 397,
      "ард": 398,
      "арæз": 399,
      "дысты": 400,
      "цийы": 401,
      "дыл": 402,
      "гом": 403,
      "фæс": 404,
      "цæуы": 405,
      "бæл": 406,
      "тет": 407,
      "бар": 408,
      "проект": 409,
      "кл": 410,
      "ырд": 411,
      "икæ": 412,
      "хуыз": 413,
      "хсæн": 414,
      "къол": 415,
      "до": 416,
      "араз": 417,
      "тон": 418,
      "фæр": 419,
      "цæу": 420,
      "ттæ": 421,
      "тимæ": 422,
      "мæйы": 423,
      "куысты": 424,
      "гæс": 425,
      "ректор": 426,
      "убл": 427,
      "джытæн": 428,
      "стой": 429,
      "факультеты": 430,
      "уый": 431,
      "хи": 432,
      "нысан": 433,
      "тæг": 434,
      "чи": 435,
      "уыдзæн": 436,
      "гæсгæ": 437,
      "спубл": 438,
      "Ар": 439,
      "сæй": 440,
      "гæй": 441,
      "ног": 442,
      "дзинæд": 443,
      "ацион": 444,
      "ивон": 445,
      "наукон": 446,
      "номыл": 447,
      "скъол": 448,
      "ахæм": 449,
      "уаты": 450,
      "раг": 451,
      "фед": 452,
      "маг": 453,
      "эк": 454,
      "кад": 455,
      "уаг": 456,
      "рег": 457,
      "»,": 458,
      "æххуы": 459,
      "куыст": 460,
      "культур": 461,
      "куыд": 462,
      "профе": 463,
      "ппæт": 464,
      "гуы": 465,
      "бæстæ": 466,
      "фор": 467,
      "хæст": 468,
      "студенттæ": 469,
      "фæдыл": 470,
      "гон": 471,
      "ацыд": 472,
      "бай": 473,
      "дай": 474,
      "ирта": 475,
      "фид": 476,
      "цц": 477,
      "ныха": 478,
      "кæныны": 479,
      "гæнæн": 480,
      "пол": 481,
      "джыты": 482,
      "пл": 483,
      "ран": 484,
      "уын": 485,
      "бæрæг": 486,
      "фæн": 487,
      "фæз": 488,
      "едаг": 489,
      "уæ": 490,
      "æры": 491,
      "едагог": 492,
      "Къ": 493,
      "аб": 494,
      "загъ": 495,
      "каты": 496,
      "хæс": 497,
      "алист": 498,
      "архайд": 499,
      "фæсив": 500,
      "цент": 501,
      "ный": 502,
      "ахъхъ": 503,
      "ыны": 504,
      "æгъ": 505,
      "айы": 506,
      "рад": 507,
      "Хе": 508,
      "фс": 509,
      "202": 510,
      "ограм": 511,
      "Хетæг": 512,
      "хъæуы": 513,
      "университет": 514,
      "адæмон": 515,
      "Къо": 516,
      "Дз": 517,
      "æнг": 518,
      "разам": 519,
      "Огъ": 520,
      "хн": 521,
      "Хетæгкаты": 522,
      "дæс": 523,
      "ро": 524,
      "Огъуаты": 525,
      "æвæр": 526,
      "Къоста": 527,
      "уæрæсе": 528,
      "гæйæ": 529,
      "ккон": 530,
      "ск": 531,
      "хат": 532,
      "рыккон": 533,
      "техн": 534,
      "загъта": 535,
      "ей": 536,
      "ру": 537,
      "фад": 538,
      "фер": 539,
      "инæ": 540,
      "коном": 541,
      "студентты": 542,
      "Къостайы": 543,
      "жы": 544,
      "аха": 545,
      "республ": 546,
      "Уый": 547,
      "аф": 548,
      "лон": 549,
      "ологи": 550,
      "професси": 551,
      "ус": 552,
      "уæлдæр": 553,
      "полит": 554,
      "».": 555,
      "рат": 556,
      "нырыккон": 557,
      "райрæз": 558,
      "дæтты": 559,
      "пар": 560,
      "ракт": 561,
      "ахиз": 562,
      "ег": 563,
      "лæу": 564,
      "ас": 565,
      "наг": 566,
      "бæстæйы": 567,
      "ев": 568,
      "хайы": 569,
      "магонд": 570,
      "ме": 571,
      "эконом": 572,
      "спор": 573,
      "орз": 574,
      "кæны": 575,
      "дзинады": 576,
      "наукæ": 577,
      "ныхас": 578,
      "регион": 579,
      "Кон": 580,
      "уа": 581,
      "аджы": 582,
      "байгом": 583,
      "ццаг": 584,
      "мадз": 585,
      "фæлтæ": 586,
      "зын": 587,
      "рæстæ": 588,
      "уав": 589,
      "дзау": 590,
      "ахс": 591,
      "дæсный": 592,
      "профессион": 593,
      "хорз": 594,
      "цау": 595,
      "арæзт": 596,
      "сæйраг": 597,
      "ферен": 598,
      "педагог": 599,
      "зæр": 600,
      "рон": 601,
      "програм": 602,
      "по": 603,
      "зонадон": 604,
      "ахъхъæн": 605,
      "акт": 606,
      "уыцы": 607,
      "арæн": 608,
      "æмæй": 609,
      "кус": 610,
      "ий": 611,
      "кæйы": 612,
      "ут": 613,
      "Ах": 614,
      "уыдон": 615,
      "дыст": 616,
      "00": 617,
      "рау": 618,
      "федр": 619,
      "енты": 620,
      "айд": 621,
      "кафедр": 622,
      "историон": 623,
      "баз": 624,
      "ыр": 625,
      "джи": 626,
      "се": 627,
      "Ст": 628,
      "дард": 629,
      "ли": 630,
      "хъæ": 631,
      "минист": 632,
      "кæнынæн": 633,
      "авк": 634,
      "сæрмагонд": 635,
      "аразын": 636,
      "ес": 637,
      "кæр": 638,
      "тты": 639,
      "цыдысты": 640,
      "æнысан": 641,
      "фадат": 642,
      "республикæйы": 643,
      "дур": 644,
      "оци": 645,
      "ары": 646,
      "æхи": 647,
      "иртасæн": 648,
      "джиаг": 649,
      "зд": 650,
      "ахуырады": 651,
      "бацæттæ": 652,
      "архайджытæ": 653,
      "фæсивæд": 654,
      "ици": 655,
      "мат": 656,
      "но": 657,
      "орг": 658,
      "цæудзæн": 659,
      "ак": 660,
      "фæнысан": 661,
      "тын": 662,
      "ологийы": 663,
      "дзинæдтæ": 664,
      "бад": 665,
      "Аланийы": 666,
      "ахсджиаг": 667,
      "ппæтуæрæсе": 668,
      "Фед": 669,
      "æрмæ": 670,
      "анд": 671,
      "цæмæй": 672,
      "студенттæн": 673,
      "фыццаг": 674,
      "Кавк": 675,
      "æмб": 676,
      "таци": 677,
      "æдты": 678,
      "бындур": 679,
      "имп": 680,
      "æвзаг": 681,
      "ерацийы": 682,
      "кафедрæйы": 683,
      "Уæл": 684,
      "Хъ": 685,
      "би": 686,
      "зонд": 687,
      "зæрд": 688,
      "каг": 689,
      "практ": 690,
      "рауагъ": 691,
      "ппæтуæрæсеон": 692,
      "æп": 693,
      "æрыгон": 694,
      "Йæ": 695,
      "стæй": 696,
      "фыл": 697,
      "инон": 698,
      "æххæст": 699,
      "спе": 700,
      "дзырд": 701,
      "æхсæнадæмон": 702,
      "ералон": 703,
      "хуыздæр": 704,
      "программæ": 705,
      "физ": 706,
      "адæй": 707,
      "æттæн": 708,
      "конкур": 709,
      "адзырд": 710,
      "профессионалон": 711,
      "фылдæр": 712,
      "æвæрд": 713,
      "æуджы": 714,
      "Архай": 715,
      "ум": 716,
      "фар": 717,
      "дзæг": 718,
      "ирон": 719,
      "Дзæуджы": 720,
      "æджы": 721,
      "бахъ": 722,
      "нц": 723,
      "ри": 724,
      "ти": 725,
      "дид": 726,
      "рæстæг": 727,
      "ос": 728,
      "сæрд": 729,
      "ынц": 730,
      "спер": 731,
      "бынат": 732,
      "архайы": 733,
      "педагогон": 734,
      "оп": 735,
      "уз": 736,
      "хæд": 737,
      "тыр": 738,
      "ссаг": 739,
      "фæрсты": 740,
      "дтæ": 741,
      "ел": 742,
      "ыс": 743,
      "хъуы": 744,
      "æддон": 745,
      "сæргъ": 746,
      "гæтты": 747,
      "су": 748,
      "уæлдай": 749,
      "фæлтæрд": 750,
      "здæх": 751,
      "Æппæтуæрæсеон": 752,
      "æнты": 753,
      "аны": 754,
      "фæлгæтты": 755,
      "фсæддон": 756,
      "уавæр": 757,
      "фил": 758,
      "аргъ": 759,
      "æмгуы": 760,
      "æххуыс": 761,
      "меди": 762,
      "ок": 763,
      "урн": 764,
      "зонын": 765,
      "адæмы": 766,
      "архайдтой": 767,
      "Про": 768,
      "ге": 769,
      "кæм": 770,
      "хы": 771,
      "ограф": 772,
      "специ": 773,
      "РЦИ": 774,
      "ккаг": 775,
      "кусын": 776,
      "хатдзæг": 777,
      "æмбырд": 778,
      "импи": 779,
      "сæргълæу": 780,
      "сарæз": 781,
      "ологон": 782,
      "екци": 783,
      "базон": 784,
      "кæрон": 785,
      "дты": 786,
      "мбæл": 787,
      "хæр": 788,
      "культурон": 789,
      "айда": 790,
      "Дзæуджыхъæуы": 791,
      "импиад": 792,
      "Мин": 793,
      "Фы": 794,
      "кан": 795,
      "радзырд": 796,
      "фæстæ": 797,
      "Ахуыр": 798,
      "ацы": 799,
      "мет": 800,
      "хим": 801,
      "баст": 802,
      "екты": 803,
      "хорзæх": 804,
      "орган": 805,
      "тынг": 806,
      "ия": 807,
      "уыдысты": 808,
      "æхсæнады": 809,
      "мæйаг": 810,
      "скъолайы": 811,
      "æты": 812,
      "Мадз": 813,
      "бир": 814,
      "тор": 815,
      "ул": 816,
      "арон": 817,
      "къæп": 818,
      "минæвæр": 819,
      "разамон": 820,
      "разамын": 821,
      "практикон": 822,
      "кæнынц": 823,
      "фембæл": 824,
      "адзау": 825,
      "экспер": 826,
      "кандид": 827,
      "къæпх": 828,
      "кæс": 829,
      "лен": 830,
      "уалон": 831,
      "ины": 832,
      "сих": 833,
      "ахуырад": 834,
      "ацийы": 835,
      "сæрдар": 836,
      "Ацы": 837,
      "еты": 838,
      "журн": 839,
      "сов": 840,
      "тер": 841,
      "уæг": 842,
      "уыдис": 843,
      "даг": 844,
      "дæг": 845,
      "цæн": 846,
      "иумæйаг": 847,
      "ологион": 848,
      "ахуыргæнджытæ": 849,
      "от": 850,
      "рады": 851,
      "æндæр": 852,
      "арды": 853,
      "хъом": 854,
      "кæнынмæ": 855,
      "Ирыстон": 856,
      "равды": 857,
      "фидар": 858,
      "наукæты": 859,
      "ференци": 860,
      "фæсивæдон": 861,
      "хæдив": 862,
      "специалист": 863,
      "æф": 864,
      "емæ": 865,
      "уыл": 866,
      "арфæ": 867,
      "сист": 868,
      "кæндзысты": 869,
      "2026": 870,
      "Студент": 871,
      "национ": 872,
      "æрдз": 873,
      "дæргъ": 874,
      "уæлахиз": 875,
      "проекттæ": 876,
      "хуызы": 877,
      "уагдæтты": 878,
      "форм": 879,
      "сæргълæууæг": 880,
      "журналист": 881,
      "лан": 882,
      "псих": 883,
      "арын": 884,
      "архайджытæн": 885,
      "команд": 886,
      "истори": 887,
      "хъуыды": 888,
      "Ре": 889,
      "лам": 890,
      "на": 891,
      "наукæйы": 892,
      "фидæны": 893,
      "плом": 894,
      "Кавказы": 895,
      "æдз": 896,
      "дун": 897,
      "æрцыд": 898,
      "уыры": 899,
      "спорт": 900,
      "Мах": 901,
      "ртæ": 902,
      "ныв": 903,
      "хайады": 904,
      "студентон": 905,
      "райсын": 906,
      "федералон": 907,
      "хæдивæг": 908,
      "вæл": 909,
      "дта": 910,
      "йаг": 911,
      "соци": 912,
      "курсы": 913,
      "фæрцы": 914,
      "ахасты": 915,
      "экономикон": 916,
      "Федерацийы": 917,
      "Минист": 918,
      "аст": 919,
      "аив": 920,
      "бах": 921,
      "дæй": 922,
      "ез": 923,
      "ест": 924,
      "ууæ": 925,
      "арæй": 926,
      "ратур": 927,
      "бонмæ": 928,
      "бæрзонд": 929,
      "культурæ": 930,
      "кандидат": 931,
      "æфсæддон": 932,
      "сфæл": 933,
      "аль": 934,
      "бака": 935,
      "фæлв": 936,
      "ппæр": 937,
      "ахъхъæнын": 938,
      "æмгуыст": 939,
      "доны": 940,
      "дек": 941,
      "тæр": 942,
      "ерг": 943,
      "омы": 944,
      "цымы": 945,
      "олимпиад": 946,
      "хъуыд": 947,
      "къл": 948,
      "ектор": 949,
      "доктор": 950,
      "нысангонд": 951,
      "технологи": 952,
      "рауагъдон": 953,
      "асс": 954,
      "сер": 955,
      "цæр": 956,
      "царды": 957,
      "дисс": 958,
      "бав": 959,
      "иуæг": 960,
      "овы": 961,
      "регионалон": 962,
      "мадзæл": 963,
      "здæхт": 964,
      "хъомыл": 965,
      "Фем": 966,
      "боны": 967,
      "гор": 968,
      "мах": 969,
      "не": 970,
      "пайда": 971,
      "умы": 972,
      "гъд": 973,
      "æхсæнад": 974,
      "центр": 975,
      "рух": 976,
      "политикæйы": 977,
      "медиц": 978,
      "хорзæхджын": 979,
      "вæлл": 980,
      "Фембæл": 981,
      "бал": 982,
      "вæз": 983,
      "стыр": 984,
      "ных": 985,
      "курди": 986,
      "скъоладзау": 987,
      "райрæзты": 988,
      "об": 989,
      "хæтты": 990,
      "цæст": 991,
      "дыууæ": 992,
      "диплом": 993,
      "барын": 994,
      "хъæппæр": 995,
      "бирæ": 996,
      "арæйнаг": 997,
      "Æхсæн": 998,
      "уаз": 999,
      "докл": 1000,
      "хæстон": 1001,
      "конкурс": 1002,
      "минæвæрттæ": 1003,
      "Республ": 1004,
      "дуне": 1005,
      "цымыдис": 1006,
      "бæттæн": 1007,
      "ори": 1008,
      "гæнæнтæ": 1009,
      "2025": 1010,
      "дарддæр": 1011,
      "уæлахиздзау": 1012,
      "социалон": 1013,
      "сфæлдыст": 1014,
      "ацæудзæн": 1015,
      "инг": 1016,
      "тап": 1017,
      "амон": 1018,
      "зонæдты": 1019,
      "къæпхæн": 1020,
      "æды": 1021,
      "æппæт": 1022,
      "зæгъ": 1023,
      "мен": 1024,
      "уæв": 1025,
      "чы": 1026,
      "уым": 1027,
      "раарфæ": 1028,
      "къор": 1029,
      "сывæлл": 1030,
      "иуджытæ": 1031,
      "фæлæ": 1032,
      "емат": 1033,
      "фæнды": 1034,
      "дзырдтой": 1035,
      "архайын": 1036,
      "Æр": 1037,
      "РА": 1038,
      "Фæс": 1039,
      "сæхи": 1040,
      "æмвæз": 1041,
      "азты": 1042,
      "хъæу": 1043,
      "директор": 1044,
      "бац": 1045,
      "гæнæг": 1046,
      "проц": 1047,
      "уыдоны": 1048,
      "æвзæр": 1049,
      "кадем": 1050,
      "уынаф": 1051,
      "хæсты": 1052,
      "Мадзал": 1053,
      "дæргъы": 1054,
      "диссер": 1055,
      "II": 1056,
      "зы": 1057,
      "лекци": 1058,
      "æрбад": 1059,
      "стит": 1060,
      "ализ": 1061,
      "равзæр": 1062,
      "æрмæст": 1063,
      "Фыды": 1064,
      "диссертаци": 1065,
      "ионы": 1066,
      "оф": 1067,
      "æрв": 1068,
      "æвар": 1069,
      "райс": 1070,
      "цæуын": 1071,
      "кадджын": 1072,
      "афтæ": 1073,
      "æнтыст": 1074,
      "географ": 1075,
      "хæрз": 1076,
      "радзырдта": 1077,
      "10": 1078,
      "ду": 1079,
      "отон": 1080,
      "уар": 1081,
      "фик": 1082,
      "æрæн": 1083,
      "арх": 1084,
      "ойты": 1085,
      "фæст": 1086,
      "æххуысæй": 1087,
      "кæмæн": 1088,
      "уырыссаг": 1089,
      "доклад": 1090,
      "Ны": 1091,
      "Цент": 1092,
      "ие": 1093,
      "кар": 1094,
      "лект": 1095,
      "лæвæрд": 1096,
      "сомы": 1097,
      "схорзæхджын": 1098,
      "тератур": 1099,
      "хъус": 1100,
      "иумæ": 1101,
      "ова": 1102,
      "хицау": 1103,
      "ференцийы": 1104,
      "математ": 1105,
      "кæронбæттæн": 1106,
      "метод": 1107,
      "академ": 1108,
      "гуыр": 1109,
      "кат": 1110,
      "сл": 1111,
      "уæд": 1112,
      "усс": 1113,
      "ахуыргæнæг": 1114,
      "актуалон": 1115,
      "декан": 1116,
      "дтой": 1117,
      "муз": 1118,
      "фон": 1119,
      "гуых": 1120,
      "спорты": 1121,
      "физикон": 1122,
      "равдыстой": 1123,
      "дар": 1124,
      "зай": 1125,
      "мад": 1126,
      "трад": 1127,
      "уæнг": 1128,
      "цæг": 1129,
      "стер": 1130,
      "айты": 1131,
      "ами": 1132,
      "факультет": 1133,
      "доцент": 1134,
      "регионы": 1135,
      "æгъд": 1136,
      "литератур": 1137,
      "фембæлд": 1138,
      "æтæ": 1139,
      "æпп": 1140,
      "Ин": 1141,
      "Стыр": 1142,
      "дгонд": 1143,
      "оз": 1144,
      "фты": 1145,
      "эт": 1146,
      "уыдзысты": 1147,
      "ика": 1148,
      "конференци": 1149,
      "комп": 1150,
      "хицæн": 1151,
      "дзинæдты": 1152,
      "дæсныйады": 1153,
      "Уæлахиз": 1154,
      "базонгæ": 1155,
      "Пр": 1156,
      "сгуых": 1157,
      "уб": 1158,
      "æртæ": 1159,
      "раны": 1160,
      "азмæ": 1161,
      "дисын": 1162,
      "оду": 1163,
      "æзты": 1164,
      "ссор": 1165,
      "фæзын": 1166,
      "фæлтæрддзинад": 1167,
      "традици": 1168,
      "19": 1169,
      "Национ": 1170,
      "Серг": 1171,
      "бинон": 1172,
      "дæн": 1173,
      "иты": 1174,
      "стæм": 1175,
      "сараз": 1176,
      "сбæрæг": 1177,
      "юр": 1178,
      "æрæмбырд": 1179,
      "студ": 1180,
      "кæндзæн": 1181,
      "проекты": 1182,
      "гъау": 1183,
      "Уымæй": 1184,
      "райрæзт": 1185,
      "зонындзинæдтæ": 1186,
      "разамонæг": 1187,
      "Фембæлды": 1188,
      "æнтыстджын": 1189,
      "Сергей": 1190,
      "15": 1191,
      "Педагог": 1192,
      "кол": 1193,
      "тен": 1194,
      "уат": 1195,
      "онг": 1196,
      "стру": 1197,
      "æсты": 1198,
      "стытæ": 1199,
      "стысты": 1200,
      "темæ": 1201,
      "къаб": 1202,
      "хуыс": 1203,
      "райды": 1204,
      "разæнг": 1205,
      "коммæ": 1206,
      "фæсарæйнаг": 1207,
      "класс": 1208,
      "цæудзысты": 1209,
      "фæсивæды": 1210,
      "центры": 1211,
      "мадзал": 1212,
      "зындгонд": 1213,
      "Архайджытæ": 1214,
      "хатдзæгтæм": 1215,
      "æрдзон": 1216,
      "Фыдыбæстæйы": 1217,
      "Мæс": 1218,
      "ич": 1219,
      "ко": 1220,
      "мб": 1221,
      "сай": 1222,
      "хæстæ": 1223,
      "ахат": 1224,
      "информ": 1225,
      "æхц": 1226,
      "през": 1227,
      "фест": 1228,
      "цæуынц": 1229,
      "профессор": 1230,
      "политикæ": 1231,
      "зынгæ": 1232,
      "дæсныйад": 1233,
      "уыдонæн": 1234,
      "дæгты": 1235,
      "Мæскуы": 1236,
      "æди": 1237,
      "Хусс": 1238,
      "баха": 1239,
      "гран": 1240,
      "дæттæ": 1241,
      "есс": 1242,
      "здæр": 1243,
      "пат": 1244,
      "пер": 1245,
      "ух": 1246,
      "цер": 1247,
      "этап": 1248,
      "æнæ": 1249,
      "æну": 1250,
      "инæйы": 1251,
      "джытимæ": 1252,
      "азæй": 1253,
      "прем": 1254,
      "бацыдысты": 1255,
      "уник": 1256,
      "уæрæсейаг": 1257,
      "зæрдæ": 1258,
      "адæмыхæтты": 1259,
      "сарæзтой": 1260,
      "медицинон": 1261,
      "Ро": 1262,
      "ми": 1263,
      "рен": 1264,
      "арф": 1265,
      "дзæв": 1266,
      "инте": 1267,
      "адыл": 1268,
      "мастер": 1269,
      "æххуысы": 1270,
      "спортивон": 1271,
      "Ун": 1272,
      "дин": 1273,
      "кор": 1274,
      "ле": 1275,
      "уж": 1276,
      "фин": 1277,
      "фæх": 1278,
      "æрæх": 1279,
      "æйæ": 1280,
      "хуызон": 1281,
      "æхсæнадон": 1282,
      "комкоммæ": 1283,
      "фæзил": 1284,
      "университетты": 1285,
      "парлам": 1286,
      "уавæры": 1287,
      "активон": 1288,
      "кусджытæ": 1289,
      "националон": 1290,
      "психологон": 1291,
      "Æхсæнадæмон": 1292,
      "сфæлдыстадон": 1293,
      "ститу": 1294,
      "30": 1295,
      "æб": 1296,
      "Фор": 1297,
      "биз": 1298,
      "др": 1299,
      "мон": 1300,
      "нов": 1301,
      "цал": 1302,
      "адим": 1303,
      "ынæн": 1304,
      "орийы": 1305,
      "ахуырдзау": 1306,
      "агъд": 1307,
      "ахуыргæндтæ": 1308,
      "хатт": 1309,
      "парахат": 1310,
      "хъуыддæгты": 1311,
      "курдиат": 1312,
      "архе": 1313,
      "разæнгард": 1314,
      "фестив": 1315,
      "Универси": 1316,
      "Мар": 1317,
      "Нæ": 1318,
      "асп": 1319,
      "кв": 1320,
      "пион": 1321,
      "уыздæр": 1322,
      "нымæ": 1323,
      "кæнæм": 1324,
      "проду": 1325,
      "иртæ": 1326,
      "бонты": 1327,
      "емпион": 1328,
      "историйы": 1329,
      "уамæ": 1330,
      "химийы": 1331,
      "организ": 1332,
      "олимпиадæйы": 1333,
      "бацах": 1334,
      "æрвыл": 1335,
      "Ираны": 1336,
      "гре": 1337,
      "егъау": 1338,
      "зар": 1339,
      "саразын": 1340,
      "хон": 1341,
      "ьер": 1342,
      "арæх": 1343,
      "хъуамæ": 1344,
      "кæнгæйæ": 1345,
      "ахуыры": 1346,
      "баиу": 1347,
      "пробл": 1348,
      "архайджыты": 1349,
      "хасæн": 1350,
      "курс": 1351,
      "»,–": 1352,
      "бындурон": 1353,
      "бавæрæн": 1354,
      "хъæппæрис": 1355,
      "гуырæн": 1356,
      "студенты": 1357,
      "Хуссар": 1358,
      "патри": 1359,
      "18": 1360,
      "Ан": 1361,
      "Цы": 1362,
      "кци": 1363,
      "орат": 1364,
      "админист": 1365,
      "æмхасæн": 1366,
      "кæнæ": 1367,
      "бам": 1368,
      "изм": 1369,
      "Алек": 1370,
      "æстон": 1371,
      "равдыст": 1372,
      "иртас": 1373,
      "фæзуат": 1374,
      "советы": 1375,
      "ахастыты": 1376,
      "РАН": 1377,
      "Фæсив": 1378,
      "служ": 1379,
      "Мæскуыйы": 1380,
      "адæмыхæттыты": 1381,
      "Ир": 1382,
      "Пре": 1383,
      "бан": 1384,
      "вырд": 1385,
      "гра": 1386,
      "зыл": 1387,
      "ккæ": 1388,
      "маджы": 1389,
      "хис": 1390,
      "ынмæ": 1391,
      "енталон": 1392,
      "атыл": 1393,
      "идент": 1394,
      "кæцы": 1395,
      "кая": 1396,
      "рæзты": 1397,
      "фæрæз": 1398,
      "форум": 1399,
      "ныхасы": 1400,
      "разамынды": 1401,
      "Министрады": 1402,
      "мадзæлттæ": 1403,
      "Сов": 1404,
      "бол": 1405,
      "де": 1406,
      "иран": 1407,
      "мод": 1408,
      "сæххæст": 1409,
      "фрон": 1410,
      "æниз": 1411,
      "ант": 1412,
      "гæнæны": 1413,
      "архайды": 1414,
      "бынæттæ": 1415,
      "размæ": 1416,
      "етер": 1417,
      "равдисын": 1418,
      "алыхуызон": 1419,
      "форумы": 1420,
      "зæрдыл": 1421,
      "номæй": 1422,
      "операцийы": 1423,
      "филологийы": 1424,
      "хыгъд": 1425,
      "системæ": 1426,
      "ныхмæ": 1427,
      "Програм": 1428,
      "Фæсивæд": 1429,
      "служб": 1430,
      "æцц": 1431,
      "Зæл": 1432,
      "ейы": 1433,
      "ох": 1434,
      "снысан": 1435,
      "инæг": 1436,
      "али": 1437,
      "æмæнг": 1438,
      "ныф": 1439,
      "ктур": 1440,
      "архайæг": 1441,
      "ахуыргæнæджы": 1442,
      "æвзаджы": 1443,
      "цæттæдзинад": 1444,
      "ректоры": 1445,
      "фæндон": 1446,
      "фæндаг": 1447,
      "аборат": 1448,
      "скы": 1449,
      "фæрстытæ": 1450,
      "хатдзæгтæ": 1451,
      "разамындæй": 1452,
      "совет": 1453,
      "журналистикæйы": 1454,
      "технологиты": 1455,
      "уынаффæ": 1456,
      "æгъдау": 1457,
      "райдыдта": 1458,
      "Вл": 1459,
      "вы": 1460,
      "йæхи": 1461,
      "оты": 1462,
      "рт": 1463,
      "ров": 1464,
      "дзур": 1465,
      "аттæ": 1466,
      "айт": 1467,
      "æмбарын": 1468,
      "кусы": 1469,
      "бацыд": 1470,
      "фæбæрæг": 1471,
      "райстой": 1472,
      "райдай": 1473,
      "сандр": 1474,
      "уæлæмхасæн": 1475,
      "номин": 1476,
      "куыстытæ": 1477,
      "экономикæ": 1478,
      "рæстæджы": 1479,
      "Ахæм": 1480,
      "хъæб": 1481,
      "Кавказ": 1482,
      "Уæлдай": 1483,
      "бахъахъхъæнын": 1484,
      "Проекты": 1485,
      "процесс": 1486,
      "райсдзысты": 1487,
      "сгуыхт": 1488,
      "Сæ": 1489,
      "Скъол": 1490,
      "вар": 1491,
      "залы": 1492,
      "рит": 1493,
      "усын": 1494,
      "анит": 1495,
      "ерон": 1496,
      "азон": 1497,
      "хъахъхъæн": 1498,
      "ахуыргæнджыты": 1499,
      "цæттæдзинады": 1500,
      "арддæр": 1501,
      "бæлвырд": 1502,
      "фæлтæр": 1503,
      "адæймаджы": 1504,
      "командæ": 1505,
      "уымæн": 1506,
      "æмвæзадыл": 1507,
      "ституты": 1508,
      "аспиран": 1509,
      "),": 1510,
      "Абон": 1511,
      "во": 1512,
      "дам": 1513,
      "еди": 1514,
      "лаборат": 1515,
      "му": 1516,
      "мол": 1517,
      "фæт": 1518,
      "чемпион": 1519,
      "æнтæ": 1520,
      "раци": 1521,
      "дзæб": 1522,
      "ертæ": 1523,
      "хъæл": 1524,
      "Алы": 1525,
      "идикон": 1526,
      "Уыдон": 1527,
      "нысаниуæг": 1528,
      "ахъхъæд": 1529,
      "ахаст": 1530,
      "министрады": 1531,
      "конкурсы": 1532,
      "уманит": 1533,
      "узны": 1534,
      "къорд": 1535,
      "фондз": 1536,
      "къабазы": 1537,
      "проблемæ": 1538,
      "хистæр": 1539,
      "æццæ": 1540,
      "Зæлинæ": 1541,
      "дзæбæх": 1542,
      "уманитарон": 1543,
      ").": 1544,
      "Аб": 1545,
      "Куы": 1546,
      "Сæр": 1547,
      "гуманитарон": 1548,
      "лай": 1549,
      "трен": 1550,
      "ья": 1551,
      "адмæ": 1552,
      "æййы": 1553,
      "хъæд": 1554,
      "æвди": 1555,
      "студенткæ": 1556,
      "райнаг": 1557,
      "хас": 1558,
      "ппар": 1559,
      "емон": 1560,
      "Уыры": 1561,
      "бæрц": 1562,
      "каст": 1563,
      "или": 1564,
      "рæзын": 1565,
      "фыс": 1566,
      "скъолаты": 1567,
      "ский": 1568,
      "акци": 1569,
      "бындурыл": 1570,
      "фарст": 1571,
      "фæрстытыл": 1572,
      "Министрад": 1573,
      "бакаст": 1574,
      "бакастысты": 1575,
      "æрбадты": 1576,
      "æдисы": 1577,
      "Росси": 1578,
      "бацахста": 1579,
      "Владим": 1580,
      "11": 1581,
      "Ди": 1582,
      "Кур": 1583,
      "Кок": 1584,
      "Ол": 1585,
      "Рав": 1586,
      "вол": 1587,
      "емæйы": 1588,
      "иаты": 1589,
      "ло": 1590,
      "мид": 1591,
      "сон": 1592,
      "хæл": 1593,
      "цæ": 1594,
      "цен": 1595,
      "уымæй": 1596,
      "раты": 1597,
      "раха": 1598,
      "æгæн": 1599,
      "дыккаг": 1600,
      "ныр": 1601,
      "ныфс": 1602,
      "кæной": 1603,
      "ктивон": 1604,
      "къами": 1605,
      "емин": 1606,
      "бынæт": 1607,
      "сæйрагдæр": 1608,
      "ност": 1609,
      "дзырдта": 1610,
      "тифик": 1611,
      "елег": 1612,
      "цымыдисдзинад": 1613,
      "уæвын": 1614,
      "хъæугæ": 1615,
      "географион": 1616,
      "фæстиуджытæ": 1617,
      "æхцайы": 1618,
      "цалдæр": 1619,
      "патриотон": 1620,
      "æгъдауæй": 1621,
      "фæтк": 1622,
      "лайн": 1623,
      "Уырыссаг": 1624,
      "Æв": 1625,
      "Зæр": 1626,
      "Нау": 1627,
      "Пли": 1628,
      "Тай": 1629,
      "ацыдысты": 1630,
      "бæс": 1631,
      "бæстон": 1632,
      "вæййы": 1633,
      "гай": 1634,
      "ла": 1635,
      "мар": 1636,
      "рий": 1637,
      "фæу": 1638,
      "цард": 1639,
      "шв": 1640,
      "эф": 1641,
      "æрдзырдтой": 1642,
      "стра": 1643,
      "анализ": 1644,
      "еры": 1645,
      "тег": 1646,
      "теат": 1647,
      "хъусын": 1648,
      "университе": 1649,
      "бонæй": 1650,
      "ахуыргæндты": 1651,
      "клуб": 1652,
      "экс": 1653,
      "уагдоны": 1654,
      "фæнд": 1655,
      "фæзуаты": 1656,
      "Конференцийы": 1657,
      "кæрæдз": 1658,
      "ициалон": 1659,
      "адæймаг": 1660,
      "уавæрты": 1661,
      "уавæртæ": 1662,
      "Студенттæ": 1663,
      "æмгуыстад": 1664,
      "Республикæ": 1665,
      "лектрон": 1666,
      "Уæлахизы": 1667,
      "Националон": 1668,
      "арфæйы": 1669,
      "парламенты": 1670,
      "продукт": 1671,
      "Кокайты": 1672,
      "Плиты": 1673,
      "25": 1674,
      "æц": 1675,
      "Ныр": 1676,
      "УФ": 1677,
      "абон": 1678,
      "бур": 1679,
      "ген": 1680,
      "исты": 1681,
      "ирайнаг": 1682,
      "мгæнæны": 1683,
      "ник": 1684,
      "ту": 1685,
      "фун": 1686,
      "цав": 1687,
      "æнд": 1688,
      "æнæмæнг": 1689,
      "ахад": 1690,
      "ентаци": 1691,
      "ани": 1692,
      "икт": 1693,
      "хъахъхъæнын": 1694,
      "димæ": 1695,
      "хуымгæнæны": 1696,
      "амб": 1697,
      "райста": 1698,
      "иттæг": 1699,
      "бынаты": 1700,
      "етикон": 1701,
      "мац": 1702,
      "цæуыны": 1703,
      "скъола": 1704,
      "магист": 1705,
      "архайдта": 1706,
      "политикон": 1707,
      "ырды": 1708,
      "Федералон": 1709,
      "бахъахъхъæн": 1710,
      "сарæзта": 1711,
      "радзырдтой": 1712,
      "системæйы": 1713,
      "аивадон": 1714,
      "сертифик": 1715,
      "Педагогон": 1716,
      "бамбарын": 1717,
      "През": 1718,
      "бынæттон": 1719,
      "цавæр": 1720,
      "Ге": 1721,
      "Дж": 1722,
      "СК": 1723,
      "Эк": 1724,
      "бю": 1725,
      "быр": 1726,
      "ио": 1727,
      "лы": 1728,
      "тран": 1729,
      "уадз": 1730,
      "электрон": 1731,
      "мæл": 1732,
      "æрцыдысты": 1733,
      "йын": 1734,
      "арты": 1735,
      "ралон": 1736,
      "раныхас": 1737,
      "æгты": 1738,
      "атор": 1739,
      "ерыс": 1740,
      "æмбæл": 1741,
      "хъайт": 1742,
      "æдтæ": 1743,
      "кусси": 1744,
      "сыз": 1745,
      "гъуыд": 1746,
      "агъом": 1747,
      "ахуыргæнджытæн": 1748,
      "равдис": 1749,
      "рæзт": 1750,
      "æвзарæн": 1751,
      "культурæйы": 1752,
      "иртасын": 1753,
      "æвæрæны": 1754,
      "Конференци": 1755,
      "Конкурсы": 1756,
      "профессионал": 1757,
      "био": 1758,
      "зондамон": 1759,
      "Проект": 1760,
      "специалисттæ": 1761,
      "фæлвæрд": 1762,
      "рухæны": 1763,
      "цæстдард": 1764,
      "дунейы": 1765,
      "официалон": 1766,
      "Центры": 1767,
      "икашв": 1768,
      "юридикон": 1769,
      "структур": 1770,
      "корре": 1771,
      "новацион": 1772,
      "Фæсивæдон": 1773,
      "Владимир": 1774,
      "13": 1775,
      "Æры": 1776,
      "АА": 1777,
      "Иу": 1778,
      "Ник": 1779,
      "бег": 1780,
      "гиз": 1781,
      "ден": 1782,
      "дом": 1783,
      "делег": 1784,
      "заг": 1785,
      "зоны": 1786,
      "йæн": 1787,
      "кг": 1788,
      "кре": 1789,
      "нес": 1790,
      "рæгъ": 1791,
      "сах": 1792,
      "фтæ": 1793,
      "æнц": 1794,
      "дзуа": 1795,
      "енко": 1796,
      "ципл": 1797,
      "æлон": 1798,
      "темат": 1799,
      "ныртæ": 1800,
      "хъæзты": 1801,
      "бацæуын": 1802,
      "конференцийы": 1803,
      "раздæр": 1804,
      "мысæн": 1805,
      "200": 1806,
      "ректорОгъуаты": 1807,
      "уагдон": 1808,
      "техникон": 1809,
      "технологийы": 1810,
      "дзинадыл": 1811,
      "регионты": 1812,
      "министрад": 1813,
      "есл": 1814,
      "æрмæг": 1815,
      "зæрдæвæрæны": 1816,
      "æмгуысты": 1817,
      "Фыццаг": 1818,
      "органикон": 1819,
      "Мадзалы": 1820,
      "иныг": 1821,
      "равдыста": 1822,
      "скъоладзауты": 1823,
      "дунеон": 1824,
      "дарддæры": 1825,
      "карьер": 1826,
      "математикон": 1827,
      "зайæг": 1828,
      "бинонты": 1829,
      "президент": 1830,
      "преми": 1831,
      "уникалон": 1832,
      "æвдисæн": 1833,
      "къамисы": 1834,
      "эффе": 1835,
      "стратег": 1836,
      "тематикон": 1837,
      "17": 1838,
      "Æфсæддон": 1839,
      "Хи": 1840,
      "Хуыздæр": 1841,
      "бу": 1842,
      "гар": 1843,
      "дтæн": 1844,
      "еор": 1845,
      "зты": 1846,
      "иент": 1847,
      "мит": 1848,
      "нын": 1849,
      "пор": 1850,
      "хо": 1851,
      "хæт": 1852,
      "хæдз": 1853,
      "мæг": 1854,
      "оректор": 1855,
      "ахуыртæ": 1856,
      "æдас": 1857,
      "рей": 1858,
      "кусæн": 1859,
      "хайад": 1860,
      "истон": 1861,
      "къах": 1862,
      "спонд": 1863,
      "проф": 1864,
      "измы": 1865,
      "еткæ": 1866,
      "дисципл": 1867,
      "мадзалы": 1868,
      "кусæг": 1869,
      "фæсивæдæн": 1870,
      "бахъахъхъæд": 1871,
      "баххуыс": 1872,
      "олимпиадæ": 1873,
      "рухс": 1874,
      "зæгъы": 1875,
      "сывæллæтты": 1876,
      "уынафф": 1877,
      "Центр": 1878,
      "хицауады": 1879,
      "академийы": 1880,
      "саразыны": 1881,
      "бизнес": 1882,
      "Александр": 1883,
      "ныффидар": 1884,
      "корреспонд": 1885,
      "50": 1886,
      "æцæг": 1887,
      "Аль": 1888,
      "Бар": 1889,
      "Вал": 1890,
      "ГУ": 1891,
      "Ды": 1892,
      "Рус": 1893,
      "Тен": 1894,
      "ауы": 1895,
      "бе": 1896,
      "ве": 1897,
      "гæх": 1898,
      "дæт": 1899,
      "ип": 1900,
      "кин": 1901,
      "низ": 1902,
      "ою": 1903,
      "пъ": 1904,
      "стæ": 1905,
      "ссы": 1906,
      "тъ": 1907,
      "ттæн": 1908,
      "уан": 1909,
      "цъ": 1910,
      "тыккаг": 1911,
      "æнæп": 1912,
      "æрныхас": 1913,
      "стат": 1914,
      "институты": 1915,
      "æйæн": 1916,
      "анг": 1917,
      "ание": 1918,
      "стыты": 1919,
      "æлты": 1920,
      "сим": 1921,
      "урок": 1922,
      "ахуыргонд": 1923,
      "ациты": 1924,
      "миниуджытæ": 1925,
      "илотон": 1926,
      "комм": 1927,
      "кадртæ": 1928,
      "куыстмæ": 1929,
      "аразынæн": 1930,
      "Архайджытæн": 1931,
      "опера": 1932,
      "специалистты": 1933,
      "æмгуыстады": 1934,
      "скъоладзаутæ": 1935,
      "дипломат": 1936,
      "процес": 1937,
      "докладтæ": 1938,
      "информаци": 1939,
      "æрæхдæр": 1940,
      "арæхст": 1941,
      "хъæбыс": 1942,
      "мидæг": 1943,
      "экскур": 1944,
      "агъоммæ": 1945,
      "дзуапп": 1946,
      "эффективон": 1947,
      "корреспондент": 1948,
      "Тенгиз": 1949,
      "12": 1950,
      "Афтæ": 1951,
      "За": 1952,
      "Ком": 1953,
      "Петер": 1954,
      "Ректор": 1955,
      "СС": 1956,
      "Тин": 1957,
      "бузны": 1958,
      "гджын": 1959,
      "еск": 1960,
      "йе": 1961,
      "кал": 1962,
      "нæу": 1963,
      "уккаг": 1964,
      "фен": 1965,
      "фтон": 1966,
      "хус": 1967,
      "цур": 1968,
      "æнæниз": 1969,
      "æрлæу": 1970,
      "стан": 1971,
      "рамб": 1972,
      "ина": 1973,
      "иктор": 1974,
      "кæнæн": 1975,
      "диал": 1976,
      "дизай": 1977,
      "кум": 1978,
      "спайда": 1979,
      "профил": 1980,
      "студенттимæ": 1981,
      "иров": 1982,
      "фæци": 1983,
      "автор": 1984,
      "бæрн": 1985,
      "кæфты": 1986,
      "адæмты": 1987,
      "рæзтæн": 1988,
      "проектты": 1989,
      "ративон": 1990,
      "райрæзтæн": 1991,
      "поэ": 1992,
      "поэт": 1993,
      "архайынц": 1994,
      "къæпхæны": 1995,
      "Махæн": 1996,
      "уазджытæ": 1997,
      "уазджытæн": 1998,
      "архайынмæ": 1999,
      "афтæмæй": 2000,
      "райрæзтмæ": 2001,
      "æнтыстджынæй": 2002,
      "сайтыл": 2003,
      "информацион": 2004,
      "Форумы": 2005,
      "Университеты": 2006,
      "квали": 2007,
      "зылды": 2008,
      "Программæ": 2009,
      "номинаци": 2010,
      "Тайму": 2011,
      "бæстæй": 2012,
      "икашвили": 2013,
      "рæгъмæ": 2014,
      "ныртæккæ": 2015,
      "экскурси": 2016,
      "Петербур": 2017,
      "Тиникашвили": 2018,
      "фтонг": 2019,
      "квалифик": 2020,
      "16": 2021,
      "Æн": 2022,
      "Ба": 2023,
      "Дмит": 2024,
      "Мен": 2025,
      "Рай": 2026,
      "Со": 2027,
      "Сан": 2028,
      "Фин": 2029,
      "Фест": 2030,
      "дарæн": 2031,
      "дикт": 2032,
      "их": 2033,
      "кæмæ": 2034,
      "мо": 2035,
      "майд": 2036,
      "тн": 2037,
      "тагъд": 2038,
      "уси": 2039,
      "ууыл": 2040,
      "хæх": 2041,
      "чиныг": 2042,
      "ъект": 2043,
      "эн": 2044,
      "яй": 2045,
      "онлайн": 2046,
      "æрз": 2047,
      "æргом": 2048,
      "æртыккаг": 2049,
      "адарддæр": 2050,
      "рац": 2051,
      "раиртæ": 2052,
      "иннæ": 2053,
      "атимæ": 2054,
      "иктæ": 2055,
      "икæмæ": 2056,
      "икæйæ": 2057,
      "æхс": 2058,
      "уриент": 2059,
      "диаг": 2060,
      "проректор": 2061,
      "байы": 2062,
      "батыр": 2063,
      "консу": 2064,
      "Уæрæсейаг": 2065,
      "итуриент": 2066,
      "азыгджын": 2067,
      "равлен": 2068,
      "мых": 2069,
      "фыстой": 2070,
      "аразæг": 2071,
      "экологион": 2072,
      "хæстæй": 2073,
      "радтой": 2074,
      "фсою": 2075,
      "ратдзæн": 2076,
      "астæ": 2077,
      "дæсныйадæй": 2078,
      "программæйы": 2079,
      "кусджытæн": 2080,
      "сесси": 2081,
      "здæхты": 2082,
      "гео": 2083,
      "хими": 2084,
      "разамонджытæ": 2085,
      "дагон": 2086,
      "мадзæлтты": 2087,
      "Республикæйы": 2088,
      "РАО": 2089,
      "æрбадт": 2090,
      "равзæрст": 2091,
      "катег": 2092,
      "тенс": 2093,
      "мидис": 2094,
      "фестиваль": 2095,
      "æрвылазон": 2096,
      "Олимпиад": 2097,
      "фæуæрæхдæр": 2098,
      "Георг": 2099,
      "æнæпилотон": 2100,
      "рамбыл": 2101,
      "Таймураз": 2102,
      "Меняй": 2103,
      "Фестив": 2104,
      "100": 2105,
      "æтæй": 2106,
      "Бæр": 2107,
      "Бан": 2108,
      "Зон": 2109,
      "Ирон": 2110,
      "Кад": 2111,
      "Кар": 2112,
      "Сы": 2113,
      "Хæсты": 2114,
      "бы": 2115,
      "базы": 2116,
      "баны": 2117,
      "ви": 2118,
      "вазыгджын": 2119,
      "ган": 2120,
      "гал": 2121,
      "гой": 2122,
      "дарын": 2123,
      "ель": 2124,
      "змæл": 2125,
      "иры": 2126,
      "кины": 2127,
      "ля": 2128,
      "лæг": 2129,
      "скодтой": 2130,
      "тракт": 2131,
      "фæд": 2132,
      "хос": 2133,
      "ххуыс": 2134,
      "æнкъ": 2135,
      "æрхъуыды": 2136,
      "арм": 2137,
      "арт": 2138,
      "раст": 2139,
      "инновацион": 2140,
      "интенс": 2141,
      "æмбар": 2142,
      "цифрон": 2143,
      "цырт": 2144,
      "приз": 2145,
      "бафæлв": 2146,
      "æвд": 2147,
      "æвдис": 2148,
      "къон": 2149,
      "иугæн": 2150,
      "ссарын": 2151,
      "ппы": 2152,
      "æуыл": 2153,
      "екцийы": 2154,
      "дзинадæн": 2155,
      "Уыцы": 2156,
      "фысс": 2157,
      "куыстыты": 2158,
      "Артур": 2159,
      "гæйтты": 2160,
      "куыстæн": 2161,
      "гуыбайы": 2162,
      "гæнæнтыл": 2163,
      "республикæ": 2164,
      "дæттынц": 2165,
      "экономикæйы": 2166,
      "Конкурс": 2167,
      "уац": 2168,
      "уыдонæй": 2169,
      "иртасæнтæ": 2170,
      "бадæттæн": 2171,
      "рауагъд": 2172,
      "медиа": 2173,
      "эксперт": 2174,
      "террит": 2175,
      "нывонд": 2176,
      "райсынæн": 2177,
      "бæрзонддæр": 2178,
      "кълеткæ": 2179,
      "цæрæг": 2180,
      "чыз": 2181,
      "III": 2182,
      "уарзон": 2183,
      "лæвæрдтой": 2184,
      "мадæлон": 2185,
      "бахаста": 2186,
      "бахастой": 2187,
      "дæттæг": 2188,
      "финан": 2189,
      "Форум": 2190,
      "фæрæзтæ": 2191,
      "Советы": 2192,
      "даменталон": 2193,
      "Сæрмагонд": 2194,
      "сызгон": 2195,
      "равдисдзысты": 2196,
      "сахатыл": 2197,
      "æнцон": 2198,
      "еоргуыбайы": 2199,
      "Альб": 2200,
      "Руслан": 2201,
      "Дмитрий": 2202,
      "астæуккаг": 2203,
      "цыртдзæв": 2204,
      "24": 2205,
      "80": 2206,
      "Иран": 2207,
      "Ос": 2208,
      "Сер": 2209,
      "Ты": 2210,
      "Цæдисы": 2211,
      "аба": 2212,
      "асси": 2213,
      "вахс": 2214,
      "дæм": 2215,
      "кæуыл": 2216,
      "менты": 2217,
      "ойы": 2218,
      "правлен": 2219,
      "семин": 2220,
      "уш": 2221,
      "уæз": 2222,
      "хиз": 2223,
      "ӕн": 2224,
      "æнмæ": 2225,
      "æгтæ": 2226,
      "орты": 2227,
      "ордин": 2228,
      "теле": 2229,
      "джытæй": 2230,
      "цыппар": 2231,
      "олты": 2232,
      "урхæт": 2233,
      "хайæдты": 2234,
      "куыстæй": 2235,
      "сыг": 2236,
      "екта": 2237,
      "бынтæ": 2238,
      "Уым": 2239,
      "Армен": 2240,
      "плек": 2241,
      "бæрæггæнæн": 2242,
      "абитуриент": 2243,
      "загътой": 2244,
      "еская": 2245,
      "суб": 2246,
      "кусынц": 2247,
      "эксперттæ": 2248,
      "Студентты": 2249,
      "æрдзур": 2250,
      "технологитæ": 2251,
      "ныхæстæ": 2252,
      "цæстæнг": 2253,
      "цымыдисаг": 2254,
      "лекцитæ": 2255,
      "географи": 2256,
      "музы": 2257,
      "уæнгтæ": 2258,
      "традицион": 2259,
      "класстæ": 2260,
      "сайнаг": 2261,
      "æнувы": 2262,
      "дзæвгæ": 2263,
      "нымæцы": 2264,
      "гресс": 2265,
      "административон": 2266,
      "системæты": 2267,
      "Скъоладзау": 2268,
      "бахъахъхъæныны": 2269,
      "креди": 2270,
      "порт": 2271,
      "дисциплинæ": 2272,
      "коммуник": 2273,
      "Санкт": 2274,
      "майдан": 2275,
      "Меняйло": 2276,
      "урхæтæны": 2277,
      "14": 2278,
      "Æмæ": 2279,
      "Æмб": 2280,
      "Дис": 2281,
      "ЕСК": 2282,
      "Ми": 2283,
      "Мæд": 2284,
      "НЕСК": 2285,
      "Там": 2286,
      "Фатимæ": 2287,
      "ЮНЕСК": 2288,
      "асы": 2289,
      "бил": 2290,
      "бот": 2291,
      "дæх": 2292,
      "жен": 2293,
      "иан": 2294,
      "кæд": 2295,
      "лæ": 2296,
      "лæвар": 2297,
      "мӕ": 2298,
      "мил": 2299,
      "сæг": 2300,
      "сыл": 2301,
      "ская": 2302,
      "хан": 2303,
      "член": 2304,
      "тæл": 2305,
      "æрм": 2306,
      "æрон": 2307,
      "уымæ": 2308,
      "инаг": 2309,
      "ерты": 2310,
      "цитæ": 2311,
      "тек": 2312,
      "æхсызгон": 2313,
      "нымад": 2314,
      "пред": 2315,
      "æдæг": 2316,
      "æддагон": 2317,
      "рем": 2318,
      "бацæуыны": 2319,
      "спект": 2320,
      "æууæл": 2321,
      "архайдимæ": 2322,
      "ологтæ": 2323,
      "бынæтты": 2324,
      "ахуыргæндтæн": 2325,
      "Аланы": 2326,
      "минæвар": 2327,
      "джындæр": 2328,
      "курсан": 2329,
      "коман": 2330,
      "дискусси": 2331,
      "мысын": 2332,
      "фыд": 2333,
      "докум": 2334,
      "дзинæдтыл": 2335,
      "кадæн": 2336,
      "гонды": 2337,
      "уæджы": 2338,
      "2024": 2339,
      "технологион": 2340,
      "партн": 2341,
      "регионтæй": 2342,
      "арæнты": 2343,
      "кусджыты": 2344,
      "ийæн": 2345,
      "иртасæнты": 2346,
      "æвзагыл": 2347,
      "физикæ": 2348,
      "Ахуыргонд": 2349,
      "спортс": 2350,
      "бахæс": 2351,
      "кандидатон": 2352,
      "тæргæйтты": 2353,
      "рауагъдонтæ": 2354,
      "ассоци": 2355,
      "горæт": 2356,
      "хъæппæристы": 2357,
      "Фæсарæйнаг": 2358,
      "æвзæрын": 2359,
      "диссертацион": 2360,
      "хæрзхъæд": 2361,
      "дæнцæг": 2362,
      "ическ": 2363,
      "хæстæг": 2364,
      "персайнаг": 2365,
      "интел": 2366,
      "бизне": 2367,
      "æмбарынад": 2368,
      "цæдис": 2369,
      "рахастой": 2370,
      "фундаменталон": 2371,
      "Джеоргуыбайы": 2372,
      "Экспер": 2373,
      "Æрыгон": 2374,
      "дизайн": 2375,
      "диктант": 2376,
      "æнувыд": 2377,
      "ЮНЕСКО": 2378,
      "28": 2379,
      "300": 2380,
      "70": 2381,
      "Æх": 2382,
      "æфс": 2383,
      "Аз": 2384,
      "Елен": 2385,
      "Пуш": 2386,
      "СО": 2387,
      "Тер": 2388,
      "Таб": 2389,
      "Фæл": 2390,
      "Эль": 2391,
      "ая": 2392,
      "ки": 2393,
      "рæс": 2394,
      "скон": 2395,
      "саб": 2396,
      "сцен": 2397,
      "то": 2398,
      "тох": 2399,
      "ук": 2400,
      "уæн": 2401,
      "уæрæх": 2402,
      "фи": 2403,
      "фут": 2404,
      "ъез": 2405,
      "уытъ": 2406,
      "аддæр": 2407,
      "артап": 2408,
      "раныхасы": 2409,
      "атфор": 2410,
      "алф": 2411,
      "æмдз": 2412,
      "æмархайд": 2413,
      "æмдзæвгæ": 2414,
      "цион": 2415,
      "æхæдæг": 2416,
      "хъы": 2417,
      "хъаз": 2418,
      "гæнджытæ": 2419,
      "къам": 2420,
      "къаддæр": 2421,
      "сымах": 2422,
      "ирæ": 2423,
      "фæц": 2424,
      "архайæджы": 2425,
      "сæджы": 2426,
      "иде": 2427,
      "равзар": 2428,
      "сæры": 2429,
      "аразджытæ": 2430,
      "цæуа": 2431,
      "цæуæг": 2432,
      "плен": 2433,
      "хæслæвæрд": 2434,
      "скийы": 2435,
      "хатты": 2436,
      "цауты": 2437,
      "арæнтæ": 2438,
      "сезоны": 2439,
      "министр": 2440,
      "аразынц": 2441,
      "аккаг": 2442,
      "биологи": 2443,
      "зæрдæмæ": 2444,
      "сæрдары": 2445,
      "фæрстытæн": 2446,
      "ысыл": 2447,
      "бастдзинæдтæ": 2448,
      "экспертон": 2449,
      "ная": 2450,
      "Фембæлд": 2451,
      "уæлахиздзаутæ": 2452,
      "дуджы": 2453,
      "музей": 2454,
      "музейы": 2455,
      "этн": 2456,
      "фæхуыздæр": 2457,
      "активонæй": 2458,
      "археологийы": 2459,
      "фестивалы": 2460,
      "нымæц": 2461,
      "грессы": 2462,
      "саразынæн": 2463,
      "хъæппæристæ": 2464,
      "зæрдылдарæн": 2465,
      "Кавказаг": 2466,
      "Россия": 2467,
      "хæлар": 2468,
      "театралон": 2469,
      "загдæр": 2470,
      "ипен": 2471,
      "энерг": 2472,
      "консуль": 2473,
      "финансон": 2474,
      "Осет": 2475,
      "Æмбырды": 2476,
      "Пушкины": 2477,
      "футбол": 2478,
      "ъезды": 2479,
      "Ам": 2480,
      "Бесл": 2481,
      "Ги": 2482,
      "Еры": 2483,
      "Ист": 2484,
      "Каз": 2485,
      "Лар": 2486,
      "Мæн": 2487,
      "Паддзах": 2488,
      "Рау": 2489,
      "Рос": 2490,
      "Сп": 2491,
      "Уаз": 2492,
      "Эконом": 2493,
      "бр": 2494,
      "ва": 2495,
      "дары": 2496,
      "еку": 2497,
      "зæ": 2498,
      "ии": 2499,
      "иуыл": 2500,
      "лæвæр": 2501,
      "линг": 2502,
      "мун": 2503,
      "омæй": 2504,
      "ря": 2505,
      "рты": 2506,
      "рар": 2507,
      "секци": 2508,
      "ттыл": 2509,
      "уаны": 2510,
      "угъд": 2511,
      "фаг": 2512,
      "хион": 2513,
      "хурхæтæны": 2514,
      "æнхъæл": 2515,
      "уыды": 2516,
      "стау": 2517,
      "ара": 2518,
      "рацыд": 2519,
      "дыг": 2520,
      "циты": 2521,
      "теор": 2522,
      "симæ": 2523,
      "сифтонг": 2524,
      "цыдис": 2525,
      "хъар": 2526,
      "удгæ": 2527,
      "гæнджыты": 2528,
      "къух": 2529,
      "дзыстæм": 2530,
      "фæбæрзонддæр": 2531,
      "хаил": 2532,
      "иденты": 2533,
      "Уымæ": 2534,
      "етон": 2535,
      "кастысты": 2536,
      "блио": 2537,
      "доуси": 2538,
      "цæугæйæ": 2539,
      "уагдæттæ": 2540,
      "ныйй": 2541,
      "университетимæ": 2542,
      "ратдзысты": 2543,
      "дæттыны": 2544,
      "рактивон": 2545,
      "евы": 2546,
      "евтон": 2547,
      "поз": 2548,
      "базар": 2549,
      "хъæбатыр": 2550,
      "Уæлдæр": 2551,
      "библио": 2552,
      "суæв": 2553,
      "бастдзинæдты": 2554,
      "экспертты": 2555,
      "терон": 2556,
      "журналистты": 2557,
      "къласы": 2558,
      "баллы": 2559,
      "курдиæттæ": 2560,
      "къорды": 2561,
      "æмвæзад": 2562,
      "ститут": 2563,
      "равзæрстой": 2564,
      "хицауад": 2565,
      "литературæйы": 2566,
      "компет": 2567,
      "сгуыхты": 2568,
      "фæзынд": 2569,
      "презентаци": 2570,
      "церемон": 2571,
      "интерактивон": 2572,
      "Университет": 2573,
      "Ирта": 2574,
      "инæгтæ": 2575,
      "хъайтар": 2576,
      "къахдз": 2577,
      "гæххæтты": 2578,
      "пълан": 2579,
      "Бæрæг": 2580,
      "Банчы": 2581,
      "Кадджын": 2582,
      "гоймæг": 2583,
      "трактмæ": 2584,
      "уацмы": 2585,
      "ординацион": 2586,
      "Михаил": 2587,
      "цæдисон": 2588,
      "рæсугъд": 2589,
      "пленарон": 2590,
      "ипенди": 2591,
      "Беслæны": 2592,
      "раргом": 2593,
      "библиоте": 2594,
      "XX": 2595,
      "»–": 2596,
      "Бон": 2597,
      "Ген": 2598,
      "Гал": 2599,
      "Ев": 2600,
      "Махъ": 2601,
      "Сос": 2602,
      "Физ": 2603,
      "Фир": 2604,
      "Фид": 2605,
      "вæн": 2606,
      "вæр": 2607,
      "еп": 2608,
      "ец": 2609,
      "еат": 2610,
      "ждай": 2611,
      "за": 2612,
      "зарæн": 2613,
      "кæрд": 2614,
      "мем": 2615,
      "нал": 2616,
      "нæниз": 2617,
      "оды": 2618,
      "оджы": 2619,
      "рор": 2620,
      "сей": 2621,
      "траг": 2622,
      "уой": 2623,
      "хой": 2624,
      "хынц": 2625,
      "цæл": 2626,
      "ъал": 2627,
      "юбил": 2628,
      "ӕг": 2629,
      "стут": 2630,
      "архи": 2631,
      "рас": 2632,
      "рабæрæг": 2633,
      "инд": 2634,
      "агур": 2635,
      "атаба": 2636,
      "алит": 2637,
      "айæн": 2638,
      "æхсын": 2639,
      "ойтæ": 2640,
      "ные": 2641,
      "систы": 2642,
      "кæнут": 2643,
      "ауди": 2644,
      "æйыл": 2645,
      "бакал": 2646,
      "исттæ": 2647,
      "споз": 2648,
      "дзыд": 2649,
      "архайдзысты": 2650,
      "райгуырæн": 2651,
      "Аллам": 2652,
      "раззагдæр": 2653,
      "ахуыргæнæн": 2654,
      "майы": 2655,
      "равдысты": 2656,
      "комплек": 2657,
      "фырт": 2658,
      "бархион": 2659,
      "дзинæдтæй": 2660,
      "уагæвæрд": 2661,
      "уагдæт": 2662,
      "платфор": 2663,
      "хæссæг": 2664,
      "дæсны": 2665,
      "фадæттæ": 2666,
      "раттын": 2667,
      "ева": 2668,
      "байгомы": 2669,
      "цаутæ": 2670,
      "бадты": 2671,
      "фармац": 2672,
      "Дзæуджыхъæу": 2673,
      "зонынады": 2674,
      "сæргълæууæджы": 2675,
      "форматы": 2676,
      "психологи": 2677,
      "историйæ": 2678,
      "хъуыдытæ": 2679,
      "хъомыладон": 2680,
      "горæты": 2681,
      "æхсæнадæн": 2682,
      "рухстау": 2683,
      "медицинæйы": 2684,
      "дипломтæ": 2685,
      "æвзæрст": 2686,
      "ализатор": 2687,
      "Уæлахиздзау": 2688,
      "фæзындзæн": 2689,
      "колле": 2690,
      "ическая": 2691,
      "грант": 2692,
      "æнæфæц": 2693,
      "фæзилæн": 2694,
      "парламент": 2695,
      "ахуырдзаутæн": 2696,
      "модель": 2697,
      "Программæйы": 2698,
      "молеку": 2699,
      "ахадын": 2700,
      "сертификаттæ": 2701,
      "биотехнологийы": 2702,
      "Никъал": 2703,
      "делегаци": 2704,
      "хъæзтыты": 2705,
      "карьерæйы": 2706,
      "стратегион": 2707,
      "Дыккаг": 2708,
      "бузныг": 2709,
      "профилон": 2710,
      "фæцис": 2711,
      "лæгг": 2712,
      "æрхъуыдыгонд": 2713,
      "семинар": 2714,
      "цæстæнгас": 2715,
      "интеллект": 2716,
      "Табатаба": 2717,
      "Паддзахадон": 2718,
      "компетен": 2719,
      "Фирдоуси": 2720,
      "ждайнаг": 2721,
      "Алламе": 2722,
      "æнæфæцудгæ": 2723,
      "35": 2724,
      "Æппæт": 2725,
      "æппæтуæрæсеон": 2726,
      "Адæм": 2727,
      "Би": 2728,
      "Баг": 2729,
      "ГЭ": 2730,
      "ДО": 2731,
      "До": 2732,
      "Зн": 2733,
      "Кл": 2734,
      "Ко": 2735,
      "Мы": 2736,
      "Ног": 2737,
      "Пя": 2738,
      "Плен": 2739,
      "Раз": 2740,
      "Скæс": 2741,
      "САА": 2742,
      "Тат": 2743,
      "Фонд": 2744,
      "Цæр": 2745,
      "ацæуын": 2746,
      "ацæудзысты": 2747,
      "бул": 2748,
      "вит": 2749,
      "гер": 2750,
      "дæ": 2751,
      "еж": 2752,
      "зт": 2753,
      "итæ": 2754,
      "калон": 2755,
      "кцийы": 2756,
      "кары": 2757,
      "лет": 2758,
      "ни": 2759,
      "нæй": 2760,
      "пул": 2761,
      "сæвз": 2762,
      "сразæнгард": 2763,
      "ттæй": 2764,
      "тджын": 2765,
      "уг": 2766,
      "уль": 2767,
      "управлен": 2768,
      "фу": 2769,
      "фонд": 2770,
      "фров": 2771,
      "хæц": 2772,
      "ью": 2773,
      "”-": 2774,
      "æрт": 2775,
      "æрбацыдысты": 2776,
      "стипенди": 2777,
      "аразы": 2778,
      "рацийы": 2779,
      "рахæс": 2780,
      "ахæццæ": 2781,
      "инв": 2782,
      "инф": 2783,
      "инджытæ": 2784,
      "инжен": 2785,
      "институт": 2786,
      "ортæ": 2787,
      "ати": 2788,
      "алкæмæн": 2789,
      "дыгон": 2790,
      "æмгъуыд": 2791,
      "икты": 2792,
      "темæйы": 2793,
      "ивд": 2794,
      "уырны": 2795,
      "æхъ": 2796,
      "ныу": 2797,
      "æтæн": 2798,
      "цыды": 2799,
      "хъæрм": 2800,
      "енттæ": 2801,
      "æздыг": 2802,
      "сæны": 2803,
      "концер": 2804,
      "куыста": 2805,
      "гæнгæйæ": 2806,
      "ссард": 2807,
      "Уыр": 2808,
      "мак": 2809,
      "ссион": 2810,
      "номыр": 2811,
      "ахъаз": 2812,
      "коми": 2813,
      "æвзар": 2814,
      "фыст": 2815,
      "проекттыл": 2816,
      "клер": 2817,
      "икæтæ": 2818,
      "ногæй": 2819,
      "рагон": 2820,
      "гуыты": 2821,
      "байты": 2822,
      "фиддон": 2823,
      "уынг": 2824,
      "бæрæггæнæнтæ": 2825,
      "абоны": 2826,
      "роп": 2827,
      "райрæзтыл": 2828,
      "000": 2829,
      "акцийы": 2830,
      "ахсджиагдзинад": 2831,
      "æвзагæй": 2832,
      "программæты": 2833,
      "æвæрдтой": 2834,
      "Архайдтой": 2835,
      "тигор": 2836,
      "осклер": 2837,
      "филологон": 2838,
      "разамынд": 2839,
      "кандидаты": 2840,
      "террор": 2841,
      "Студенттæн": 2842,
      "командæтæ": 2843,
      "ахастытæ": 2844,
      "кълас": 2845,
      "хъомылады": 2846,
      "уæлахиздзауты": 2847,
      "амоныны": 2848,
      "сывæллæттæ": 2849,
      "факультетты": 2850,
      "литературæ": 2851,
      "æппын": 2852,
      "компани": 2853,
      "традицитæ": 2854,
      "бинонтæн": 2855,
      "Алексей": 2856,
      "службæйы": 2857,
      "советон": 2858,
      "варс": 2859,
      "хъахъхъæныны": 2860,
      "лабораторийы": 2861,
      "чемпионаты": 2862,
      "продукттæ": 2863,
      "хъахъхъæнынады": 2864,
      "домæн": 2865,
      "Валер": 2866,
      "уроктæ": 2867,
      "диалог": 2868,
      "бæрнон": 2869,
      "Петербурджы": 2870,
      "категорийы": 2871,
      "Олимпиадæйы": 2872,
      "ппытæ": 2873,
      "Мæдинæ": 2874,
      "милуан": 2875,
      "сабыр": 2876,
      "теоретикон": 2877,
      "ныййар": 2878,
      "Сослан": 2879,
      "вæрсыг": 2880,
      "бакалав": 2881,
      "платформæ": 2882,
      "ДОСАА": 2883,
      "Пятигор": 2884,
      "Пленарон": 2885,
      "пуля": 2886,
      "фровиз": 2887,
      "хъæрмхуы": 2888,
      "ДОСААФ": 2889,
      "21": 2890,
      "IX": 2891,
      "Асс": 2892,
      "Абайты": 2893,
      "Гер": 2894,
      "Дарддæр": 2895,
      "Куыд": 2896,
      "Мæ": 2897,
      "Меди": 2898,
      "Ра": 2899,
      "Рег": 2900,
      "Сæй": 2901,
      "Тег": 2902,
      "УАА": 2903,
      "бер": 2904,
      "бек": 2905,
      "виктор": 2906,
      "да": 2907,
      "даджы": 2908,
      "зал": 2909,
      "йæм": 2910,
      "кы": 2911,
      "лем": 2912,
      "ной": 2913,
      "пай": 2914,
      "рæст": 2915,
      "сур": 2916,
      "скæнын": 2917,
      "сарæзт": 2918,
      "секцийы": 2919,
      "тӕ": 2920,
      "тмæ": 2921,
      "уал": 2922,
      "цæдисы": 2923,
      "ъара": 2924,
      "эпо": 2925,
      "ян": 2926,
      "тыст": 2927,
      "мæттæ": 2928,
      "тæссаг": 2929,
      "стрем": 2930,
      "йыл": 2931,
      "арз": 2932,
      "инду": 2933,
      "агент": 2934,
      "æгас": 2935,
      "анты": 2936,
      "анайты": 2937,
      "аналит": 2938,
      "атер": 2939,
      "атом": 2940,
      "айнаг": 2941,
      "стыл": 2942,
      "цифровиз": 2943,
      "æлы": 2944,
      "æлар": 2945,
      "тест": 2946,
      "омат": 2947,
      "ивы": 2948,
      "ивид": 2949,
      "цыфæнды": 2950,
      "олов": 2951,
      "хъир": 2952,
      "хъæздыг": 2953,
      "ого": 2954,
      "дион": 2955,
      "æвдыст": 2956,
      "истты": 2957,
      "истой": 2958,
      "истраци": 2959,
      "оныв": 2960,
      "ыллон": 2961,
      "куыстой": 2962,
      "проба": 2963,
      "гъдæг": 2964,
      "феххуыс": 2965,
      "фессион": 2966,
      "амын": 2967,
      "амал": 2968,
      "иудзинады": 2969,
      "зонад": 2970,
      "разы": 2971,
      "ераны": 2972,
      "ератор": 2973,
      "арæзты": 2974,
      "клин": 2975,
      "Архайы": 2976,
      "дзинæдтæм": 2977,
      "байхъуы": 2978,
      "пласт": 2979,
      "Дзырд": 2980,
      "ферæйы": 2981,
      "профессийы": 2982,
      "меж": 2983,
      "регионæй": 2984,
      "кафедрæ": 2985,
      "Стъара": 2986,
      "министры": 2987,
      "авказ": 2988,
      "аразынмæ": 2989,
      "оцикл": 2990,
      "ицип": 2991,
      "бадæтты": 2992,
      "дидинджытæ": 2993,
      "ографи": 2994,
      "кусыны": 2995,
      "базонын": 2996,
      "Минæвар": 2997,
      "кæсдзысты": 2998,
      "системон": 2999,
      "æдзух": 3000,
      "аивад": 3001,
      "аивæдты": 3002,
      "ратурæйы": 3003,
      "хъуыддаг": 3004,
      "хъуыддаджы": 3005,
      "докторы": 3006,
      "серв": 3007,
      "скъоладзаутæн": 3008,
      "объект": 3009,
      "зæгъгæ": 3010,
      "Ныхас": 3011,
      "хъусдард": 3012,
      "æгъдæу": 3013,
      "æппæты": 3014,
      "æппæтæй": 3015,
      "сараздзысты": 3016,
      "дæсныйадмæ": 3017,
      "этапы": 3018,
      "æнусы": 3019,
      "премийы": 3020,
      "финалист": 3021,
      "организаци": 3022,
      "Анд": 3023,
      "кæцытæ": 3024,
      "фæрæзтæй": 3025,
      "етероцикл": 3026,
      "номинацийы": 3027,
      "Алык": 3028,
      "нысаниуæгджын": 3029,
      "тренер": 3030,
      "Равдыст": 3031,
      "Наукон": 3032,
      "лаур": 3033,
      "ерысты": 3034,
      "университетæн": 3035,
      "университетæй": 3036,
      "денджы": 3037,
      "рухсадон": 3038,
      "Барис": 3039,
      "вете": 3040,
      "процессы": 3041,
      "хъæбысхæстæй": 3042,
      "квалификаци": 3043,
      "хæхты": 3044,
      "фсоюзы": 3045,
      "рамбылдта": 3046,
      "Зонад": 3047,
      "уарзондзинад": 3048,
      "Альбинæ": 3049,
      "телефон": 3050,
      "музыкалон": 3051,
      "майдантæ": 3052,
      "Фæлæ": 3053,
      "сæрыстыр": 3054,
      "Ерысты": 3055,
      "церемони": 3056,
      "къахдзæф": 3057,
      "библиотекæйы": 3058,
      "Махъоты": 3059,
      "Фидæны": 3060,
      "архите": 3061,
      "индивид": 3062,
      "колледж": 3063,
      "Никъалайы": 3064,
      "Знание": 3065,
      "æртхъир": 3066,
      "Уырны": 3067,
      "Пятигорскы": 3068,
      "Ассоци": 3069,
      "Сæйраг": 3070,
      "Тегераны": 3071,
      "пайдай": 3072,
      "Стъарапол": 3073,
      "03": 3074,
      "29": 3075,
      "46": 3076,
      ":.": 3077,
      "VIII": 3078,
      "te": 3079,
      "Æртæ": 3080,
      "Вадим": 3081,
      "Дав": 3082,
      "Зæг": 3083,
      "Зæгъ": 3084,
      "Ли": 3085,
      "Лекци": 3086,
      "Мам": 3087,
      "НЦ": 3088,
      "СХ": 3089,
      "Св": 3090,
      "Се": 3091,
      "Семин": 3092,
      "Фа": 3093,
      "Эр": 3094,
      "ап": 3095,
      "афæ": 3096,
      "апп": 3097,
      "бок": 3098,
      "зæх": 3099,
      "зиан": 3100,
      "ию": 3101,
      "йæхæдæг": 3102,
      "кль": 3103,
      "ков": 3104,
      "лис": 3105,
      "мик": 3106,
      "мгуы": 3107,
      "нд": 3108,
      "над": 3109,
      "нæм": 3110,
      "ож": 3111,
      "обл": 3112,
      "рæн": 3113,
      "сæм": 3114,
      "схы": 3115,
      "уч": 3116,
      "уæхи": 3117,
      "хæццæ": 3118,
      "шлен": 3119,
      "юж": 3120,
      "тæх": 3121,
      "тæккæ": 3122,
      "æрдзырдта": 3123,
      "адж": 3124,
      "ство": 3125,
      "интер": 3126,
      "анте": 3127,
      "анов": 3128,
      "ери": 3129,
      "ерей": 3130,
      "дыр": 3131,
      "цикл": 3132,
      "икс": 3133,
      "ивгъуыд": 3134,
      "æттимæ": 3135,
      "промы": 3136,
      "æдар": 3137,
      "ода": 3138,
      "бакусын": 3139,
      "контрактмæ": 3140,
      "уду": 3141,
      "удвар": 3142,
      "ылай": 3143,
      "кæнынад": 3144,
      "кæныныл": 3145,
      "профор": 3146,
      "фехъусын": 3147,
      "райгуыр": 3148,
      "иугонд": 3149,
      "хасы": 3150,
      "хабæр": 3151,
      "хакат": 3152,
      "адзур": 3153,
      "бонтæ": 3154,
      "Али": 3155,
      "зонгæ": 3156,
      "зонæдтæ": 3157,
      "ппур": 3158,
      "сынц": 3159,
      "агъдон": 3160,
      "дзинадæй": 3161,
      "турн": 3162,
      "туристон": 3163,
      "æвзæгты": 3164,
      "фæсарæнты": 3165,
      "фæрæзты": 3166,
      "Арфæ": 3167,
      "экстрем": 3168,
      "æххуысæн": 3169,
      "бæстæты": 3170,
      "формат": 3171,
      "фидæн": 3172,
      "ранты": 3173,
      "фæсивæди": 3174,
      "радта": 3175,
      "рох": 3176,
      "хаттон": 3177,
      "ейон": 3178,
      "республикон": 3179,
      "афоны": 3180,
      "потен": 3181,
      "популя": 3182,
      "уыдонимæ": 3183,
      "рауадз": 3184,
      "лиц": 3185,
      "Федор": 3186,
      "биологон": 3187,
      "æххæстгæнæг": 3188,
      "физикæйы": 3189,
      "физкультурæ": 3190,
      "фæлтæрддзинадыл": 3191,
      "кусынмæ": 3192,
      "æмбырдгонд": 3193,
      "базондзысты": 3194,
      "кæронмæ": 3195,
      "Ахуыргæн": 3196,
      "бастдзинад": 3197,
      "фембæлдтæ": 3198,
      "кæсын": 3199,
      "Ирыстонæй": 3200,
      "командæйы": 3201,
      "райсынмæ": 3202,
      "фæлварæн": 3203,
      "кълæсты": 3204,
      "докторон": 3205,
      "бавæрд": 3206,
      "махæн": 3207,
      "къæпхæнмæ": 3208,
      "Æрбадты": 3209,
      "диссертацитæ": 3210,
      "офи": 3211,
      "дуæр": 3212,
      "фæстаг": 3213,
      "математикæ": 3214,
      "этно": 3215,
      "Педагогическая": 3216,
      "темæтыл": 3217,
      "классикон": 3218,
      "грантон": 3219,
      "перспект": 3220,
      "археологи": 3221,
      "æрвылбон": 3222,
      "иртасджыты": 3223,
      "службæ": 3224,
      "хъæбул": 3225,
      "бахъахъхъæнынæн": 3226,
      "процесстæ": 3227,
      "лаборатори": 3228,
      "тренинг": 3229,
      "фарстатыл": 3230,
      "Диан": 3231,
      "Диплом": 3232,
      "фæстиуджытæм": 3233,
      "Наукæйы": 3234,
      "кæрæдзи": 3235,
      "кæрæдзийæн": 3236,
      "Ныртæккæ": 3237,
      "амбылай": 3238,
      "сертификат": 3239,
      "Президенты": 3240,
      "Хицау": 3241,
      "профцæдисон": 3242,
      "бахъахъхъæдтой": 3243,
      "арæхстдзинæдтæ": 3244,
      "æрлæууын": 3245,
      "ировкæ": 3246,
      "мыхуыр": 3247,
      "Фестиваль": 3248,
      "бафæлварын": 3249,
      "территори": 3250,
      "кълеткæтæ": 3251,
      "чызг": 3252,
      "цыртдзæвæн": 3253,
      "ектакль": 3254,
      "Тамер": 3255,
      "предмет": 3256,
      "курсанттæ": 3257,
      "команди": 3258,
      "мысынад": 3259,
      "спортсмен": 3260,
      "бахæссын": 3261,
      "бизнесы": 3262,
      "уытъиаты": 3263,
      "алфамбылай": 3264,
      "Рауагъдон": 3265,
      "Уазджытæн": 3266,
      "муницип": 3267,
      "суæвын": 3268,
      "цæлгæнæн": 3269,
      "аудитор": 3270,
      "спозици": 3271,
      "фармацевтон": 3272,
      "ахадындзинад": 3273,
      "интеллектуалон": 3274,
      "Табатабаийы": 3275,
      "Татья": 3276,
      "сæвзæрд": 3277,
      "хæцæнг": 3278,
      "инфра": 3279,
      "денджызы": 3280,
      "индивидуалон": 3281,
      "æртхъирæны": 3282,
      "Зæгæлты": 3283,
      "промышлен": 3284,
      "фæсивæдимæ": 3285,
      "потенци": 3286,
      "23": 3287,
      "27": 3288,
      "45": 3289,
      "60": 3290,
      "Ай": 3291,
      "Ана": 3292,
      "Бузны": 3293,
      "ГÆ": 3294,
      "Гуытъиаты": 3295,
      "Дон": 3296,
      "Ден": 3297,
      "ИИ": 3298,
      "Ис": 3299,
      "Кæд": 3300,
      "МИ": 3301,
      "Мами": 3302,
      "Нат": 3303,
      "ПА": 3304,
      "Те": 3305,
      "Тол": 3306,
      "УГÆ": 3307,
      "Хуы": 3308,
      "ЦК": 3309,
      "Че": 3310,
      "Чер": 3311,
      "Эл": 3312,
      "аш": 3313,
      "бин": 3314,
      "был": 3315,
      "буду": 3316,
      "выл": 3317,
      "виде": 3318,
      "дах": 3319,
      "дæл": 3320,
      "едж": 3321,
      "жис": 3322,
      "зау": 3323,
      "исæн": 3324,
      "исæ": 3325,
      "ицийы": 3326,
      "иентаци": 3327,
      "кой": 3328,
      "лаг": 3329,
      "лат": 3330,
      "лик": 3331,
      "лек": 3332,
      "лектор": 3333,
      "лоб": 3334,
      "мын": 3335,
      "май": 3336,
      "мент": 3337,
      "мос": 3338,
      "мирæ": 3339,
      "нмæ": 3340,
      "ое": 3341,
      "радон": 3342,
      "ргом": 3343,
      "скодта": 3344,
      "сног": 3345,
      "съезды": 3346,
      "сюж": 3347,
      "ттимæ": 3348,
      "тинг": 3349,
      "уон": 3350,
      "уды": 3351,
      "цæмæ": 3352,
      "цæс": 3353,
      "цаты": 3354,
      "чин": 3355,
      "элем": 3356,
      "ӕр": 3357,
      "​​": 3358,
      "онты": 3359,
      "æруынаффæ": 3360,
      "æрбацыд": 3361,
      "уыимæ": 3362,
      "стомат": 3363,
      "дзыллон": 3364,
      "ахаты": 3365,
      "инфе": 3366,
      "ения": 3367,
      "орон": 3368,
      "аттест": 3369,
      "айон": 3370,
      "тацийы": 3371,
      "джытыл": 3372,
      "нысæн": 3373,
      "æттæй": 3374,
      "цыбыр": 3375,
      "цыппур": 3376,
      "оль": 3377,
      "кæна": 3378,
      "дих": 3379,
      "дибар": 3380,
      "ахуырмæ": 3381,
      "пре": 3382,
      "пресс": 3383,
      "бабæрæг": 3384,
      "конгресс": 3385,
      "спектакль": 3386,
      "студенттæм": 3387,
      "амы": 3388,
      "райст": 3389,
      "райди": 3390,
      "райсæн": 3391,
      "Цæголты": 3392,
      "хаст": 3393,
      "зонды": 3394,
      "агъта": 3395,
      "тыхджындæр": 3396,
      "Алани": 3397,
      "Алания": 3398,
      "мини": 3399,
      "минæв": 3400,
      "еттæ": 3401,
      "бæрз": 3402,
      "адæмæн": 3403,
      "фабр": 3404,
      "рæзы": 3405,
      "алывæрсыг": 3406,
      "мæймæ": 3407,
      "сæрдыгон": 3408,
      "бæлл": 3409,
      "барад": 3410,
      "хуызты": 3411,
      "экз": 3412,
      "экологи": 3413,
      "экологийы": 3414,
      "экспе": 3415,
      "регистраци": 3416,
      "ццаджы": 3417,
      "уынц": 3418,
      "бæрæгбон": 3419,
      "æгъдибар": 3420,
      "парта": 3421,
      "лæууын": 3422,
      "механ": 3423,
      "спортон": 3424,
      "Конгрессы": 3425,
      "фæлтæры": 3426,
      "зæрст": 3427,
      "утины": 3428,
      "уыдонмæ": 3429,
      "ное": 3430,
      "импаг": 3431,
      "программæтæ": 3432,
      "Архайджыты": 3433,
      "фармак": 3434,
      "рæстæгмæ": 3435,
      "фæрстыты": 3436,
      "суанг": 3437,
      "фæлтæрдджын": 3438,
      "Профсоюзы": 3439,
      "ографион": 3440,
      "Ахуырад": 3441,
      "минæвæртты": 3442,
      "отря": 3443,
      "æндæртæ": 3444,
      "æфты": 3445,
      "Студентон": 3446,
      "журналистикæ": 3447,
      "райсыны": 3448,
      "алья": 3449,
      "рауагъдонты": 3450,
      "рауагъдонтæн": 3451,
      "хъомылад": 3452,
      "балæвар": 3453,
      "зæгъын": 3454,
      "менедж": 3455,
      "сывæллæттимæ": 3456,
      "Æрвыл": 3457,
      "директоры": 3458,
      "Фыдыбæстæ": 3459,
      "уарз": 3460,
      "фæстиу": 3461,
      "математикæйы": 3462,
      "методикон": 3463,
      "академик": 3464,
      "академион": 3465,
      "литературон": 3466,
      "Институты": 3467,
      "компью": 3468,
      "структор": 3469,
      "райдыдтой": 3470,
      "æхцайон": 3471,
      "фæзилæнтæ": 3472,
      "курдиатджын": 3473,
      "Марат": 3474,
      "организацийы": 3475,
      "бацахстой": 3476,
      "администрацийы": 3477,
      "иртасæг": 3478,
      "иртасджытæ": 3479,
      "Иринæ": 3480,
      "Советон": 3481,
      "размæдзыд": 3482,
      "райдайæн": 3483,
      "бахъахъхъæнынмæ": 3484,
      "дамгъ": 3485,
      "хъæлæс": 3486,
      "ахастдзинæдты": 3487,
      "Курди": 3488,
      "Курсы": 3489,
      "ности": 3490,
      "Зæринæ": 3491,
      "вæййынц": 3492,
      "анализы": 3493,
      "клубы": 3494,
      "продуктты": 3495,
      "Президент": 3496,
      "бюдж": 3497,
      "ерыстæ": 3498,
      "фæлвæрдтой": 3499,
      "хъæзтытæ": 3500,
      "буаргъ": 3501,
      "хæдзар": 3502,
      "киноныв": 3503,
      "символ": 3504,
      "хъæбысхæсты": 3505,
      "Бацæттæ": 3506,
      "Райгуырæн": 3507,
      "диагност": 3508,
      "мыхуыры": 3509,
      "Георгий": 3510,
      "Фестивалы": 3511,
      "базыдтой": 3512,
      "хостæ": 3513,
      "интенсивон": 3514,
      "æвдисæг": 3515,
      "Серхи": 3516,
      "ассист": 3517,
      "дисциплинæтæ": 3518,
      "ботан": 3519,
      "дæхтой": 3520,
      "тæлмац": 3521,
      "текст": 3522,
      "Эльмирæ": 3523,
      "æмдзæвгæтæ": 3524,
      "хъыг": 3525,
      "консультаци": 3526,
      "Гире": 3527,
      "Казах": 3528,
      "лингв": 3529,
      "мемуар": 3530,
      "нæниздзинад": 3531,
      "трагеди": 3532,
      "компетенцитæ": 3533,
      "Биган": 3534,
      "булкъон": 3535,
      "управленийы": 3536,
      "инженерон": 3537,
      "ссардтой": 3538,
      "осклероз": 3539,
      "бакалаври": 3540,
      "аналитикон": 3541,
      "Андрей": 3542,
      "Алыксандр": 3543,
      "лауреат": 3544,
      "пайдайаг": 3545,
      "Давид": 3546,
      "Факуль": 3547,
      "лисаг": 3548,
      "антемы": 3549,
      "командиров": 3550,
      "инфраструктур": 3551,
      "Наталья": 3552,
      "будущ": 3553,
      "жиссер": 3554,
      "лобалон": 3555,
      "цыппурсы": 3556,
      "экспеди": 3557,
      "120": 3558,
      "34": 3559,
      "500": 3560,
      "81": 3561,
      "Æл": 3562,
      "Ас": 3563,
      "Виктор": 3564,
      "Гом": 3565,
      "ЕГЭ": 3566,
      "Зын": 3567,
      "Ив": 3568,
      "Кæс": 3569,
      "Кир": 3570,
      "Крас": 3571,
      "Лен": 3572,
      "Мад": 3573,
      "МГУ": 3574,
      "Нов": 3575,
      "Ок": 3576,
      "Пл": 3577,
      "Пар": 3578,
      "РТ": 3579,
      "СТ": 3580,
      "Сев": 3581,
      "Смол": 3582,
      "Тим": 3583,
      "Турн": 3584,
      "Хим": 3585,
      "Хуым": 3586,
      "Хæрз": 3587,
      "Цæц": 3588,
      "Чемпион": 3589,
      "аси": 3590,
      "атæй": 3591,
      "аев": 3592,
      "бадзырд": 3593,
      "бæсты": 3594,
      "брен": 3595,
      "вæт": 3596,
      "го": 3597,
      "гæд": 3598,
      "дул": 3599,
      "жировкæ": 3600,
      "зарын": 3601,
      "исы": 3602,
      "ке": 3603,
      "кады": 3604,
      "кавказ": 3605,
      "лид": 3606,
      "лег": 3607,
      "лæпп": 3608,
      "нæг": 3609,
      "нæл": 3610,
      "нанд": 3611,
      "очы": 3612,
      "пн": 3613,
      "рæм": 3614,
      "ром": 3615,
      "сæх": 3616,
      "сау": 3617,
      "скъ": 3618,
      "снывонд": 3619,
      "сферæйы": 3620,
      "тре": 3621,
      "ттæм": 3622,
      "уаджы": 3623,
      "уæгъдибар": 3624,
      "фын": 3625,
      "хæз": 3626,
      "хир": 3627,
      "цу": 3628,
      "шру": 3629,
      "яр": 3630,
      "æнахуыр": 3631,
      "æнус": 3632,
      "мæтты": 3633,
      "тæтæ": 3634,
      "æрси": 3635,
      "æрæны": 3636,
      "æрбан": 3637,
      "æркастысты": 3638,
      "стартап": 3639,
      "æмæт": 3640,
      "рахиз": 3641,
      "ахи": 3642,
      "инаджы": 3643,
      "æйй": 3644,
      "æйады": 3645,
      "оры": 3646,
      "ория": 3647,
      "ертæн": 3648,
      "æмæн": 3649,
      "æмрæн": 3650,
      "икъ": 3651,
      "икæйæн": 3652,
      "тера": 3653,
      "тель": 3654,
      "теори": 3655,
      "дæрид": 3656,
      "азæг": 3657,
      "аздæхтой": 3658,
      "оген": 3659,
      "ахуыргонды": 3660,
      "аудæн": 3661,
      "æдтæй": 3662,
      "курат": 3663,
      "æвдисын": 3664,
      "къуыр": 3665,
      "профсою": 3666,
      "сыгъдæг": 3667,
      "гъæр": 3668,
      "æууæн": 3669,
      "ирд": 3670,
      "хуынд": 3671,
      "фæкъаддæр": 3672,
      "архайдзæн": 3673,
      "архайджытимæ": 3674,
      "исæг": 3675,
      "исдзысты": 3676,
      "исыны": 3677,
      "иудзинад": 3678,
      "Алинæ": 3679,
      "ави": 3680,
      "авы": 3681,
      "зонг": 3682,
      "кодтам": 3683,
      "раздах": 3684,
      "тыхтæ": 3685,
      "туризм": 3686,
      "ахуыргæнинæг": 3687,
      "Уыдоны": 3688,
      "стажировкæ": 3689,
      "æстаг": 3690,
      "кæйæн": 3691,
      "илимп": 3692,
      "номарæн": 3693,
      "равзарын": 3694,
      "барæй": 3695,
      "барадон": 3696,
      "барады": 3697,
      "аразгæ": 3698,
      "Арт": 3699,
      "Арф": 3700,
      "куыстдæттæг": 3701,
      "культурæты": 3702,
      "ппæтæн": 3703,
      "бæрæгбоны": 3704,
      "фæзу": 3705,
      "зынаргъ": 3706,
      "дæсныйæдтæ": 3707,
      "зæрдæргъ": 3708,
      "зæрдиаг": 3709,
      "актив": 3710,
      "сел": 3711,
      "лиг": 3712,
      "æмбырды": 3713,
      "æвзагон": 3714,
      "æвзагзонынады": 3715,
      "Хъахъхъæнын": 3716,
      "биологион": 3717,
      "практикæйы": 3718,
      "суазæг": 3719,
      "фæлтæрддзинады": 3720,
      "æнтысты": 3721,
      "æнтыстытæ": 3722,
      "аныхас": 3723,
      "уавæртыл": 3724,
      "зонындзинæдтæй": 3725,
      "Профессион": 3726,
      "базонæн": 3727,
      "хæринæгтæ": 3728,
      "химикон": 3729,
      "фембæлды": 3730,
      "дæгтæ": 3731,
      "иумæйагахуырадон": 3732,
      "æфсæн": 3733,
      "дæргъвæт": 3734,
      "командæты": 3735,
      "декс": 3736,
      "балцы": 3737,
      "Æхсæнад": 3738,
      "уазæг": 3739,
      "къæпхæныл": 3740,
      "сывæллæттæн": 3741,
      "æрмæстдæр": 3742,
      "æрви": 3743,
      "Нырыккон": 3744,
      "Ныхасы": 3745,
      "хъусджытæ": 3746,
      "методтæ": 3747,
      "дарыны": 3748,
      "уæнгты": 3749,
      "хицæндзинæдтæ": 3750,
      "199": 3751,
      "коллект": 3752,
      "координацион": 3753,
      "фæзилæнты": 3754,
      "орийыл": 3755,
      "ахуырдзаутæ": 3756,
      "разæнгардгæнæн": 3757,
      "зарты": 3758,
      "патриот": 3759,
      "Цыбыр": 3760,
      "администраци": 3761,
      "бамбар": 3762,
      "граждайнаг": 3763,
      "службæмæ": 3764,
      "уынаффæтæ": 3765,
      "райдайдзысты": 3766,
      "Скъолайы": 3767,
      "аспиранттæ": 3768,
      "проблемæтæ": 3769,
      "Абдул": 3770,
      "Абилимп": 3771,
      "Куыст": 3772,
      "России": 3773,
      "Æвзарæн": 3774,
      "Зæринæйы": 3775,
      "маршру": 3776,
      "адæймагæй": 3777,
      "транспортон": 3778,
      "домæнтæ": 3779,
      "зайæгойты": 3780,
      "хæдзары": 3781,
      "рейтинг": 3782,
      "рухсады": 3783,
      "уынаффæгæн": 3784,
      "Валент": 3785,
      "статист": 3786,
      "англисаг": 3787,
      "операци": 3788,
      "оператор": 3789,
      "дипломатон": 3790,
      "фенæн": 3791,
      "æнæниздзинад": 3792,
      "диалоджы": 3793,
      "бæстæйæ": 3794,
      "хæххон": 3795,
      "раиртæстытæ": 3796,
      "æхсæз": 3797,
      "рамбылдтой": 3798,
      "Карьер": 3799,
      "баныхас": 3800,
      "æнкъарæнтæ": 3801,
      "интенсив": 3802,
      "призертæ": 3803,
      "иугæндты": 3804,
      "территорийыл": 3805,
      "уæззау": 3806,
      "Арменийы": 3807,
      "абитуриенттæн": 3808,
      "субъект": 3809,
      "кредитон": 3810,
      "Дискусси": 3811,
      "фыдæлты": 3812,
      "ассоциаци": 3813,
      "Еленæ": 3814,
      "къамис": 3815,
      "хæслæвæрдтæ": 3816,
      "Ларисæ": 3817,
      "Бæрæгбоны": 3818,
      "закъон": 3819,
      "комплекс": 3820,
      "лæггад": 3821,
      "Багир": 3822,
      "Скæсæны": 3823,
      "Цæрикъ": 3824,
      "геро": 3825,
      "инвест": 3826,
      "индуст": 3827,
      "оловон": 3828,
      "байхъуыстой": 3829,
      "æгъдæуттæ": 3830,
      "етероцикликон": 3831,
      "архитектур": 3832,
      "Ассоциацийы": 3833,
      "СХО": 3834,
      "Семинары": 3835,
      "Эрнанд": 3836,
      "зæхх": 3837,
      "микро": 3838,
      "дыргъ": 3839,
      "профориентаци": 3840,
      "хакатоны": 3841,
      "офицер": 3842,
      "Хицауады": 3843,
      "муниципалон": 3844,
      "Татьяна": 3845,
      "Мамиаты": 3846,
      "Чех": 3847,
      "видео": 3848,
      "инфекци": 3849,
      "бæллæх": 3850,
      "партаменты": 3851,
      "механизм": 3852,
      "компьютерон": 3853,
      "Серхио": 3854,
      "ассистент": 3855,
      "Факультеты": 3856,
      "Оксан": 3857,
      "Тимур": 3858,
      "Хуымгæнæны": 3859,
      "Цæцæны": 3860,
      "лæппу": 3861,
      "æрбангом": 3862,
      "æмрæнхъ": 3863,
      "дæриддæр": 3864,
      "Хъахъхъæнынады": 3865,
      "дæргъвæтин": 3866,
      "Абилимпикс": 3867,
      "400": 3868,
      "XI": 3869,
      "an": 3870,
      "ch": 3871,
      "en": 3872,
      "Æд": 3873,
      "æбæл": 3874,
      "Бе": 3875,
      "Бат": 3876,
      "Бал": 3877,
      "Бай": 3878,
      "Бир": 3879,
      "Вя": 3880,
      "ГС": 3881,
      "Джы": 3882,
      "Дев": 3883,
      "Кат": 3884,
      "Кал": 3885,
      "Лу": 3886,
      "МГ": 3887,
      "МО": 3888,
      "Му": 3889,
      "НО": 3890,
      "Нарты": 3891,
      "Пав": 3892,
      "Сал": 3893,
      "Тар": 3894,
      "Тус": 3895,
      "Уæ": 3896,
      "Ум": 3897,
      "Уч": 3898,
      "Фæн": 3899,
      "Фран": 3900,
      "Фарм": 3901,
      "Ходы": 3902,
      "Ян": 3903,
      "абар": 3904,
      "ацау": 3905,
      "апарахат": 3906,
      "аппар": 3907,
      "ацæуыны": 3908,
      "бау": 3909,
      "бахиз": 3910,
      "брон": 3911,
      "вер": 3912,
      "дын": 3913,
      "дины": 3914,
      "жд": 3915,
      "иуы": 3916,
      "канд": 3917,
      "кос": 3918,
      "коп": 3919,
      "мот": 3920,
      "моду": 3921,
      "ня": 3922,
      "нит": 3923,
      "ней": 3924,
      "ост": 3925,
      "под": 3926,
      "пут": 3927,
      "рийы": 3928,
      "сахуыр": 3929,
      "скæй": 3930,
      "скæндзысты": 3931,
      "самб": 3932,
      "сæмбæл": 3933,
      "сæвæрдтой": 3934,
      "сразы": 3935,
      "тр": 3936,
      "уе": 3937,
      "фт": 3938,
      "фæм": 3939,
      "фта": 3940,
      "фады": 3941,
      "хæн": 3942,
      "хтыр": 3943,
      "цар": 3944,
      "цин": 3945,
      "чын": 3946,
      "чест": 3947,
      "чесл": 3948,
      "чысыл": 3949,
      "школ": 3950,
      "яд": 3951,
      "”,": 3952,
      "онтер": 3953,
      "æнгом": 3954,
      "æнæхъ": 3955,
      "мæйæ": 3956,
      "стран": 3957,
      "арæ": 3958,
      "арод": 3959,
      "рацыдысты": 3960,
      "рахицæн": 3961,
      "рапарахат": 3962,
      "дзаг": 3963,
      "дзæх": 3964,
      "аххос": 3965,
      "енд": 3966,
      "ены": 3967,
      "æгмæ": 3968,
      "анти": 3969,
      "атон": 3970,
      "алмæ": 3971,
      "ики": 3972,
      "ным": 3973,
      "азæн": 3974,
      "цытджын": 3975,
      "ург": 3976,
      "хъахъхъæд": 3977,
      "дистан": 3978,
      "æввахс": 3979,
      "æвзонг": 3980,
      "констру": 3981,
      "уден": 3982,
      "ЦИП": 3983,
      "унæг": 3984,
      "кæнынæй": 3985,
      "кæнынады": 3986,
      "къойты": 3987,
      "къати": 3988,
      "сыраты": 3989,
      "дзыстут": 3990,
      "фæфылдæр": 3991,
      "фæтыхджындæр": 3992,
      "архайой": 3993,
      "исл": 3994,
      "исынц": 3995,
      "районы": 3996,
      "иууыл": 3997,
      "иухаттон": 3998,
      "хабар": 3999,
      "хауынц": 4000,
      "ссыл": 4001,
      "ации": 4002,
      "ация": 4003,
      "ацигонд": 4004,
      "донæй": 4005,
      "сангонд": 4006,
      "разов": 4007,
      "турæйы": 4008,
      "мину": 4009,
      "миниу": 4010,
      "етты": 4011,
      "стаси": 4012,
      "адæмимæ": 4013,
      "факт": 4014,
      "æвзарын": 4015,
      "историк": 4016,
      "арæзтой": 4017,
      "бæллиц": 4018,
      "бартæ": 4019,
      "проектон": 4020,
      "проекттæм": 4021,
      "клас": 4022,
      "дохтыр": 4023,
      "аразыны": 4024,
      "цæуой": 4025,
      "гæсæг": 4026,
      "хиты": 4027,
      "хиуынафф": 4028,
      "хибарæй": 4029,
      "ахæмтæ": 4030,
      "экологон": 4031,
      "экспозици": 4032,
      "кадрон": 4033,
      "кадрты": 4034,
      "фидæнмæ": 4035,
      "плак": 4036,
      "фæндтæ": 4037,
      "архайдмæ": 4038,
      "скæс": 4039,
      "руаджы": 4040,
      "фадгуыты": 4041,
      "его": 4042,
      "мецен": 4043,
      "наукæтæ": 4044,
      "ныхасмæ": 4045,
      "Конгресс": 4046,
      "педагогическ": 4047,
      "кусдзысты": 4048,
      "ырх": 4049,
      "Стартап": 4050,
      "аразынæй": 4051,
      "матери": 4052,
      "тацион": 4053,
      "Хъуыл": 4054,
      "Хъантемы": 4055,
      "æххæстгонд": 4056,
      "программæмæ": 4057,
      "конкурсты": 4058,
      "архайыны": 4059,
      "елы": 4060,
      "сусæны": 4061,
      "аргъуаны": 4062,
      "хыгъ": 4063,
      "кусынæн": 4064,
      "Ахуырадон": 4065,
      "метры": 4066,
      "химион": 4067,
      "органтæ": 4068,
      "эксперим": 4069,
      "кæсынц": 4070,
      "отов": 4071,
      "Ирыстонæн": 4072,
      "фидардзинад": 4073,
      "специалисттæн": 4074,
      "æфта": 4075,
      "психолог": 4076,
      "асти": 4077,
      "культурæимæ": 4078,
      "цæрджыты": 4079,
      "цардыуаг": 4080,
      "иуæгады": 4081,
      "центрты": 4082,
      "хорзæхджынгонд": 4083,
      "дипломтæй": 4084,
      "доклады": 4085,
      "уæлахиздзаутæн": 4086,
      "сфæлдыстад": 4087,
      "амонæг": 4088,
      "равзæрды": 4089,
      "архивон": 4090,
      "Нысангонд": 4091,
      "катализатор": 4092,
      "уæддæр": 4093,
      "фæлтæрддзинадæй": 4094,
      "тенден": 4095,
      "æнусты": 4096,
      "Рост": 4097,
      "динты": 4098,
      "корп": 4099,
      "фæхæццæ": 4100,
      "фæзилæны": 4101,
      "монон": 4102,
      "цалцæг": 4103,
      "организациты": 4104,
      "банчы": 4105,
      "грамо": 4106,
      "ныхмæлæу": 4107,
      "дзурæг": 4108,
      "райдайдзæн": 4109,
      "Куыдз": 4110,
      "фарстаты": 4111,
      "Æввахс": 4112,
      "генетикон": 4113,
      "туг": 4114,
      "ахадгæ": 4115,
      "магистран": 4116,
      "магистратурæйы": 4117,
      "бамбарынæн": 4118,
      "уадзын": 4119,
      "хъайтарты": 4120,
      "Никол": 4121,
      "карьерæ": 4122,
      "зайæгой": 4123,
      "170": 4124,
      "бахъахъхъæдта": 4125,
      "æцæгдзинад": 4126,
      "беджы": 4127,
      "процессты": 4128,
      "арæхстдзинад": 4129,
      "бузныджы": 4130,
      "фенын": 4131,
      "поэты": 4132,
      "Æнæмæнг": 4133,
      "Сохиты": 4134,
      "сессийы": 4135,
      "здæхтытæ": 4136,
      "геоэкологийы": 4137,
      "Георгийы": 4138,
      "змæлд": 4139,
      "змæлды": 4140,
      "лярон": 4141,
      "бафæлвар": 4142,
      "фыссæг": 4143,
      "Армени": 4144,
      "Скъоладзауты": 4145,
      "Скъоладзаутæн": 4146,
      "сылгоймæг": 4147,
      "документалон": 4148,
      "партнертæ": 4149,
      "ассоциацийы": 4150,
      "хæстæгдæр": 4151,
      "Эксперттæ": 4152,
      "Азæмæт": 4153,
      "Елена": 4154,
      "СОГУ": 4155,
      "сконд": 4156,
      "сконды": 4157,
      "Осетия": 4158,
      "футболæй": 4159,
      "лæвæрттæ": 4160,
      "фагн": 4161,
      "æнхъæлмæ": 4162,
      "уагдæттæм": 4163,
      "базарады": 4164,
      "Галазты": 4165,
      "кæрдæ": 4166,
      "уагæвæрдтæ": 4167,
      "рухстауæг": 4168,
      "Уæлахиздзаутæ": 4169,
      "Адæмон": 4170,
      "уголовон": 4171,
      "рахæсдзысты": 4172,
      "темæйыл": 4173,
      "ныуу": 4174,
      "æппынæдзух": 4175,
      "сабырдзинад": 4176,
      "викторинæ": 4177,
      "эпосы": 4178,
      "цифровизацийы": 4179,
      "бадæттын": 4180,
      "Минæварады": 4181,
      "Зæгъæм": 4182,
      "Мамсыраты": 4183,
      "Свет": 4184,
      "мгуыст": 4185,
      "хæцæнгарз": 4186,
      "Анастаси": 4187,
      "Бузныг": 4188,
      "элемент": 4189,
      "нысæнттæ": 4190,
      "минæвары": 4191,
      "фабрикæ": 4192,
      "ццаджыдæр": 4193,
      "буаргъæды": 4194,
      "Гиреевы": 4195,
      "Ленинг": 4196,
      "Парлам": 4197,
      "Смолен": 4198,
      "æнустæм": 4199,
      "ахицæн": 4200,
      "профсоюзон": 4201,
      "Цыбырты": 4202,
      "Карьерæйы": 4203,
      "профориентацион": 4204,
      "Чеховы": 4205,
      "Бекъойты": 4206,
      "Вячесл": 4207,
      "Джыз": 4208,
      "Девлет": 4209,
      "Тускъати": 4210,
      "модуль": 4211,
      "самбль": 4212,
      "фæмард": 4213,
      "хиуынаффæйады": 4214,
      "меценат": 4215,
      "!»": 4216,
      "(«": 4217,
      "22": 4218,
      "31": 4219,
      "Va": 4220,
      "al": 4221,
      "es": 4222,
      "in": 4223,
      "АСС": 4224,
      "Акцийы": 4225,
      "Бæл": 4226,
      "Боны": 4227,
      "Бæгъ": 4228,
      "Бел": 4229,
      "Бæстон": 4230,
      "Бзарты": 4231,
      "Вол": 4232,
      "Васи": 4233,
      "Гра": 4234,
      "Гор": 4235,
      "Габ": 4236,
      "Даг": 4237,
      "Дæс": 4238,
      "Из": 4239,
      "Иль": 4240,
      "Игор": 4241,
      "Кин": 4242,
      "Кол": 4243,
      "Кæрон": 4244,
      "Лом": 4245,
      "Лук": 4246,
      "МА": 4247,
      "Мæх": 4248,
      "Ном": 4249,
      "Пер": 4250,
      "Псих": 4251,
      "Радзырд": 4252,
      "СР": 4253,
      "Соф": 4254,
      "Съезды": 4255,
      "Сбер": 4256,
      "Тед": 4257,
      "Три": 4258,
      "Фон": 4259,
      "Фил": 4260,
      "Фæнысан": 4261,
      "Ха": 4262,
      "Хай": 4263,
      "Хæх": 4264,
      "Хадж": 4265,
      "Хæбæл": 4266,
      "Школ": 4267,
      "Юрий": 4268,
      "амæттæ": 4269,
      "бат": 4270,
      "бух": 4271,
      "гы": 4272,
      "гты": 4273,
      "гæрз": 4274,
      "года": 4275,
      "готов": 4276,
      "для": 4277,
      "ее": 4278,
      "езд": 4279,
      "жан": 4280,
      "злат": 4281,
      "иж": 4282,
      "истытæ": 4283,
      "ифтонг": 4284,
      "куыры": 4285,
      "лæм": 4286,
      "ланы": 4287,
      "лова": 4288,
      "ман": 4289,
      "мис": 4290,
      "ну": 4291,
      "нод": 4292,
      "нам": 4293,
      "оси": 4294,
      "оти": 4295,
      "пал": 4296,
      "пис": 4297,
      "публ": 4298,
      "пысыл": 4299,
      "рид": 4300,
      "радзур": 4301,
      "сар": 4302,
      "син": 4303,
      "ссæ": 4304,
      "сæвæр": 4305,
      "сформ": 4306,
      "сфагн": 4307,
      "тивон": 4308,
      "фл": 4309,
      "фикæ": 4310,
      "хты": 4311,
      "хау": 4312,
      "хæрд": 4313,
      "хох": 4314,
      "цты": 4315,
      "цæх": 4316,
      "цов": 4317,
      "цинон": 4318,
      "цауы": 4319,
      "цеп": 4320,
      "чат": 4321,
      "шо": 4322,
      "шах": 4323,
      "ъезд": 4324,
      "ьев": 4325,
      "ӕй": 4326,
      "ӕмӕ": 4327,
      "онтæ": 4328,
      "ондзинад": 4329,
      "æрба": 4330,
      "æрдзы": 4331,
      "æрцæуы": 4332,
      "æркаст": 4333,
      "станы": 4334,
      "стайæн": 4335,
      "аризмы": 4336,
      "арвит": 4337,
      "æмæтты": 4338,
      "дзи": 4339,
      "дзтæ": 4340,
      "дзауы": 4341,
      "ахсы": 4342,
      "ахсынц": 4343,
      "инн": 4344,
      "æсы": 4345,
      "ение": 4346,
      "ентацийы": 4347,
      "ано": 4348,
      "анисл": 4349,
      "ансамбль": 4350,
      "алцы": 4351,
      "дыстой": 4352,
      "дыгæй": 4353,
      "æмархайды": 4354,
      "æлахиз": 4355,
      "тетæн": 4356,
      "таты": 4357,
      "æхæлар": 4358,
      "дæрæй": 4359,
      "æтимæ": 4360,
      "олимпаг": 4361,
      "хъæн": 4362,
      "хъуаг": 4363,
      "хъуын": 4364,
      "дия": 4365,
      "прин": 4366,
      "ауадз": 4367,
      "æдæ": 4368,
      "æдтæм": 4369,
      "рез": 4370,
      "реалон": 4371,
      "ресур": 4372,
      "режиссер": 4373,
      "баты": 4374,
      "бафты": 4375,
      "бацæудзысты": 4376,
      "бафыстой": 4377,
      "конгрессы": 4378,
      "удæгас": 4379,
      "истикæ": 4380,
      "онывы": 4381,
      "гæнæджы": 4382,
      "къул": 4383,
      "сыдысты": 4384,
      "æугæ": 4385,
      "фев": 4386,
      "хуымæ": 4387,
      "фæфидар": 4388,
      "исон": 4389,
      "истæй": 4390,
      "ископ": 4391,
      "иуварс": 4392,
      "ионалон": 4393,
      "наукæмæ": 4394,
      "науки": 4395,
      "донорты": 4396,
      "зонæн": 4397,
      "зонады": 4398,
      "Уæрæсейæ": 4399,
      "уæлæдар": 4400,
      "бынæг": 4401,
      "паддзахад": 4402,
      "ахуыргæнджытимæ": 4403,
      "Аланæмæ": 4404,
      "маш": 4405,
      "кæты": 4406,
      "как": 4407,
      "кафты": 4408,
      "блок": 4409,
      "мыс": 4410,
      "уыдтой": 4411,
      "рæзтыл": 4412,
      "2019": 4413,
      "цæттæгæнæн": 4414,
      "сæрапп": 4415,
      "фысты": 4416,
      "бардзырд": 4417,
      "хуызтæ": 4418,
      "куыстыл": 4419,
      "рагацау": 4420,
      "бæстæтæй": 4421,
      "ныхасæй": 4422,
      "поли": 4423,
      "уынгæ": 4424,
      "хæссы": 4425,
      "хæссын": 4426,
      "раджы": 4427,
      "радио": 4428,
      "Къостайæн": 4429,
      "ейбол": 4430,
      "афон": 4431,
      "Концер": 4432,
      "профессионализ": 4433,
      "пораци": 4434,
      "кусджытимæ": 4435,
      "базз": 4436,
      "Станисл": 4437,
      "иртасæны": 4438,
      "æрмæджытæ": 4439,
      "фыццагкурс": 4440,
      "æвзагмæ": 4441,
      "Хъæ": 4442,
      "Хъазы": 4443,
      "зæрдæхæлар": 4444,
      "практикæтæ": 4445,
      "рауагъды": 4446,
      "программæйæ": 4447,
      "фарм": 4448,
      "фарста": 4449,
      "риест": 4450,
      "бынатмæ": 4451,
      "хæдтæх": 4452,
      "сæргъы": 4453,
      "уæлдайдæр": 4454,
      "уавæртæм": 4455,
      "ографийы": 4456,
      "сарæзты": 4457,
      "сарæзтыл": 4458,
      "дтытæ": 4459,
      "хæринаджы": 4460,
      "хорзæхтæ": 4461,
      "минæвæрттимæ": 4462,
      "иныджы": 4463,
      "ланæ": 4464,
      "курсытæ": 4465,
      "аивады": 4466,
      "баххæст": 4467,
      "фæлвар": 4468,
      "тæрс": 4469,
      "цæрджытæ": 4470,
      "диссаджы": 4471,
      "пайдакæнынад": 4472,
      "балц": 4473,
      "вæзын": 4474,
      "курдиæтты": 4475,
      "Республикон": 4476,
      "цымыдисон": 4477,
      "сфæлдыстады": 4478,
      "уæвгæйæ": 4479,
      "Æрæмбырд": 4480,
      "бацамы": 4481,
      "душ": 4482,
      "уарзы": 4483,
      "Ныфс": 4484,
      "ахуыргæнæгæй": 4485,
      "фонды": 4486,
      "дарæм": 4487,
      "факультетмæ": 4488,
      "Инновацион": 4489,
      "бинонтæ": 4490,
      "персон": 4491,
      "археологион": 4492,
      "продукци": 4493,
      "иртæсты": 4494,
      "организацион": 4495,
      "æрвылаз": 4496,
      "зарæг": 4497,
      "зарджытæ": 4498,
      "зылдты": 4499,
      "департаменты": 4500,
      "депут": 4501,
      "равдисынæн": 4502,
      "равдисынмæ": 4503,
      "архайæгæй": 4504,
      "цæттæдзинадмæ": 4505,
      "фæндагыл": 4506,
      "аспирант": 4507,
      "Куыстытæ": 4508,
      "ьянов": 4509,
      "æрбадтытæ": 4510,
      "Олег": 4511,
      "Равдысты": 4512,
      "волонтер": 4513,
      "волейбол": 4514,
      "рахаст": 4515,
      "нырид": 4516,
      "ность": 4517,
      "фæткы": 4518,
      "Зæрдыл": 4519,
      "фæуæлахиз": 4520,
      "театр": 4521,
      "функци": 4522,
      "æндæвд": 4523,
      "бюст": 4524,
      "транспорты": 4525,
      "трансформ": 4526,
      "электроникæйы": 4527,
      "зондамонæн": 4528,
      "Иумæ": 4529,
      "зайæгойтæ": 4530,
      "стратеги": 4531,
      "æдасдзинады": 4532,
      "къахвæн": 4533,
      "Дыууæ": 4534,
      "Зауыр": 4535,
      "СССР": 4536,
      "профилакт": 4537,
      "номинацимæ": 4538,
      "бæстæйæн": 4539,
      "квалификацион": 4540,
      "Финан": 4541,
      "рацарæзт": 4542,
      "Олимпиадæ": 4543,
      "Сывæлл": 4544,
      "базыдта": 4545,
      "витын": 4546,
      "галерей": 4547,
      "фыссын": 4548,
      "эксперттимæ": 4549,
      "нывондгонд": 4550,
      "Тыбыл": 4551,
      "ектакл": 4552,
      "Уымæн": 4553,
      "бæрæггæнæнтимæ": 4554,
      "коммуникацийы": 4555,
      "æууæлтæ": 4556,
      "командон": 4557,
      "документ": 4558,
      "хъæппæристыл": 4559,
      "дæнцæгтæ": 4560,
      "Экспертон": 4561,
      "æфсадмæ": 4562,
      "фиды": 4563,
      "æмдзæрæн": 4564,
      "хъазт": 4565,
      "хæлардзинад": 4566,
      "энерги": 4567,
      "Истори": 4568,
      "Спектакл": 4569,
      "Экономикон": 4570,
      "хъару": 4571,
      "Иртасæн": 4572,
      "хъайтартæ": 4573,
      "гæххæттытæй": 4574,
      "уацмыстæ": 4575,
      "Геннад": 4576,
      "епископ": 4577,
      "хойраг": 4578,
      "хойраджы": 4579,
      "хынцгæйæ": 4580,
      "уагдæттæй": 4581,
      "уагдæттимæ": 4582,
      "парламентаризмы": 4583,
      "молекул": 4584,
      "молекулярон": 4585,
      "Координацион": 4586,
      "Раздæр": 4587,
      "концертон": 4588,
      "комитет": 4589,
      "домæнтæм": 4590,
      "ныййарджытæн": 4591,
      "хъæрмхуыппытæ": 4592,
      "Медиа": 4593,
      "Регионалон": 4594,
      "агентады": 4595,
      "атеросклероз": 4596,
      "сервис": 4597,
      "Стъараполы": 4598,
      "tech": 4599,
      "Лидия": 4600,
      "схызты": 4601,
      "турнир": 4602,
      "Ахуыргæндтæ": 4603,
      "дуæртты": 4604,
      "перспектив": 4605,
      "Дианæ": 4606,
      "сертификаттæй": 4607,
      "Тамерлан": 4608,
      "потенциал": 4609,
      "Донец": 4610,
      "ПАУ": 4611,
      "ликтон": 4612,
      "менеджменты": 4613,
      "хъыгдард": 4614,
      "Биганти": 4615,
      "командировкæйы": 4616,
      "Аслан": 4617,
      "Краснод": 4618,
      "рæмы": 4619,
      "хирург": 4620,
      "терап": 4621,
      "æвдисынц": 4622,
      "æууæнк": 4623,
      "зæрдæргъæвд": 4624,
      "селератор": 4625,
      "лигæйы": 4626,
      "æрвитын": 4627,
      "бамбарой": 4628,
      "рейтингы": 4629,
      "Цæрикъаты": 4630,
      "Оксанæ": 4631,
      "Катализатор": 4632,
      "æнæхъæн": 4633,
      "дистанцион": 4634,
      "гæсæгæ": 4635,
      "Хъуылаты": 4636,
      "хыгъды": 4637,
      "Куыдзиаты": 4638,
      "Светланæ": 4639,
      "Анастасия": 4640,
      "Парламенты": 4641,
      "Смоленскы": 4642,
      "Вячеслав": 4643,
      "Vatech": 4644,
      "Бæгъиаты": 4645,
      "Дагест": 4646,
      "Дæсгай": 4647,
      "Игорь": 4648,
      "Кæронбæттæн": 4649,
      "Лукьянов": 4650,
      "Мæхæмæтты": 4651,
      "Тедеты": 4652,
      "Хæххон": 4653,
      "Хæбæлаты": 4654,
      "Школа": 4655,
      "куырыхон": 4656,
      "лæмбынæг": 4657,
      "мисси": 4658,
      "публик": 4659,
      "шахмат": 4660,
      "сæраппонд": 4661,
      "Концертон": 4662,
      "персоналон": 4663,
      "депутат": 4664,
      "Тыбылты": 4665,
      "Геннадий": 4666,
      "!»,": 4667,
      "01": 4668,
      "26": 4669,
      "33": 4670,
      "40": 4671,
      "600": 4672,
      ";–": 4673,
      "IT": 4674,
      "ac": 4675,
      "er": 4676,
      "Æм": 4677,
      "Ак": 4678,
      "Амин": 4679,
      "Академ": 4680,
      "Акци": 4681,
      "Ацæмæ": 4682,
      "Бор": 4683,
      "Базон": 4684,
      "Ват": 4685,
      "Вас": 4686,
      "Гар": 4687,
      "Гаг": 4688,
      "Де": 4689,
      "Дун": 4690,
      "Доб": 4691,
      "Екат": 4692,
      "Жан": 4693,
      "Зæрд": 4694,
      "Здæх": 4695,
      "ИМО": 4696,
      "ИНО": 4697,
      "Кады": 4698,
      "Кру": 4699,
      "Май": 4700,
      "Мол": 4701,
      "Мил": 4702,
      "Мак": 4703,
      "Оте": 4704,
      "Оль": 4705,
      "ОРТ": 4706,
      "Пет": 4707,
      "РГ": 4708,
      "Ром": 4709,
      "Рам": 4710,
      "СН": 4711,
      "СП": 4712,
      "Сл": 4713,
      "Су": 4714,
      "Сте": 4715,
      "Сау": 4716,
      "Сам": 4717,
      "Секци": 4718,
      "Тур": 4719,
      "Тамб": 4720,
      "ТАСС": 4721,
      "Уру": 4722,
      "ФЗ": 4723,
      "Фæр": 4724,
      "Фæстаг": 4725,
      "Хорз": 4726,
      "Хуытъ": 4727,
      "Ханайты": 4728,
      "ХПАУ": 4729,
      "Цæмæй": 4730,
      "Чи": 4731,
      "ЭФ": 4732,
      "Юр": 4733,
      "аж": 4734,
      "атæ": 4735,
      "апр": 4736,
      "буар": 4737,
      "вз": 4738,
      "вад": 4739,
      "ваг": 4740,
      "вир": 4741,
      "выс": 4742,
      "ги": 4743,
      "гин": 4744,
      "гдæр": 4745,
      "гид": 4746,
      "гри": 4747,
      "гæрæн": 4748,
      "гойты": 4749,
      "глобалон": 4750,
      "гетероцикликон": 4751,
      "дадз": 4752,
      "дайы": 4753,
      "динон": 4754,
      "дарды": 4755,
      "етæ": 4756,
      "еский": 4757,
      "жюр": 4758,
      "зды": 4759,
      "иунæг": 4760,
      "йон": 4761,
      "кра": 4762,
      "куыр": 4763,
      "ког": 4764,
      "кæстæ": 4765,
      "ккаты": 4766,
      "кæмæй": 4767,
      "лов": 4768,
      "лгæ": 4769,
      "лей": 4770,
      "лекцийы": 4771,
      "моб": 4772,
      "нор": 4773,
      "наты": 4774,
      "нарты": 4775,
      "пин": 4776,
      "пак": 4777,
      "род": 4778,
      "смæ": 4779,
      "сом": 4780,
      "смы": 4781,
      "суыдзæн": 4782,
      "сæвзæр": 4783,
      "сгар": 4784,
      "сæвзæрын": 4785,
      "сæхæдæг": 4786,
      "съезд": 4787,
      "тов": 4788,
      "топ": 4789,
      "уст": 4790,
      "уæм": 4791,
      "уагъд": 4792,
      "химæ": 4793,
      "хид": 4794,
      "це": 4795,
      "центы": 4796,
      "цæмæн": 4797,
      "чъ": 4798,
      "чийы": 4799,
      "ченко": 4800,
      "шей": 4801,
      "шев": 4802,
      "шри": 4803,
      "ыст": 4804,
      "ыры": 4805,
      "ье": 4806,
      "юри": 4807,
      "язы": 4808,
      "ӕу": 4809,
      "оналон": 4810,
      "онос": 4811,
      "тыгъд": 4812,
      "æндон": 4813,
      "æнæф": 4814,
      "тæтæй": 4815,
      "тæваг": 4816,
      "æраты": 4817,
      "æрныхасы": 4818,
      "æрбацæуын": 4819,
      "уыди": 4820,
      "уыдзыстут": 4821,
      "адап": 4822,
      "стъ": 4823,
      "ства": 4824,
      "араты": 4825,
      "ынад": 4826,
      "ынæй": 4827,
      "ынчын": 4828,
      "æмæлгæ": 4829,
      "дзаст": 4830,
      "дзæугæ": 4831,
      "ахт": 4832,
      "ахады": 4833,
      "инарон": 4834,
      "институ": 4835,
      "инструктор": 4836,
      "ентæй": 4837,
      "æгæрон": 4838,
      "æйнаг": 4839,
      "орæ": 4840,
      "орион": 4841,
      "антты": 4842,
      "ать": 4843,
      "атмæ": 4844,
      "атол": 4845,
      "ативон": 4846,
      "алл": 4847,
      "алистæй": 4848,
      "ерт": 4849,
      "айæ": 4850,
      "æмхуызон": 4851,
      "такт": 4852,
      "омет": 4853,
      "ойæ": 4854,
      "ныпп": 4855,
      "цыл": 4856,
      "цытæн": 4857,
      "уром": 4858,
      "хъау": 4859,
      "хъары": 4860,
      "хъыс": 4861,
      "хъазты": 4862,
      "хъавы": 4863,
      "дийы": 4864,
      "ентген": 4865,
      "кто": 4866,
      "пром": 4867,
      "æдде": 4868,
      "одский": 4869,
      "одеж": 4870,
      "æзон": 4871,
      "рет": 4872,
      "ремен": 4873,
      "реликтон": 4874,
      "бацæу": 4875,
      "баск": 4876,
      "бакæсдзысты": 4877,
      "бафæлвæрдтой": 4878,
      "адысты": 4879,
      "æвир": 4880,
      "концеп": 4881,
      "хаймæ": 4882,
      "исттæн": 4883,
      "пров": 4884,
      "сыр": 4885,
      "дзыгон": 4886,
      "гълæу": 4887,
      "æудзæн": 4888,
      "фех": 4889,
      "студентæн": 4890,
      "студенттæй": 4891,
      "ирдæй": 4892,
      "амп": 4893,
      "амоны": 4894,
      "фæкаст": 4895,
      "фæдзæх": 4896,
      "ийыл": 4897,
      "ись": 4898,
      "райсты": 4899,
      "райдайы": 4900,
      "Цæгæраты": 4901,
      "хауы": 4902,
      "адзы": 4903,
      "Алих": 4904,
      "авд": 4905,
      "аврид": 4906,
      "æрдæг": 4907,
      "агъды": 4908,
      "агътой": 4909,
      "развит": 4910,
      "тыхджын": 4911,
      "един": 4912,
      "паддзахады": 4913,
      "Аланæн": 4914,
      "Аландæр": 4915,
      "миниуæг": 4916,
      "мингай": 4917,
      "етбол": 4918,
      "касты": 4919,
      "фактор": 4920,
      "комы": 4921,
      "мызд": 4922,
      "мысыдысты": 4923,
      "æвзæгтæ": 4924,
      "2020": 4925,
      "фыр": 4926,
      "фыды": 4927,
      "историктæ": 4928,
      "арæзтæн": 4929,
      "цæуыл": 4930,
      "проектæн": 4931,
      "класт": 4932,
      "араздзысты": 4933,
      "аразгæйæ": 4934,
      "ректорæн": 4935,
      "нысанмæ": 4936,
      "читель": 4937,
      "Арте": 4938,
      "Аринæ": 4939,
      "ного": 4940,
      "дзинæдтæн": 4941,
      "ахæмты": 4942,
      "гуыл": 4943,
      "бæстæмæ": 4944,
      "байти": 4945,
      "уæды": 4946,
      "уæфты": 4947,
      "уæппытæ": 4948,
      "æрымысыдысты": 4949,
      "2022": 4950,
      "университеттæ": 4951,
      "Дзгойты": 4952,
      "æвæрæн": 4953,
      "æвæрсыг": 4954,
      "техникæ": 4955,
      "ейн": 4956,
      "русс": 4957,
      "фадæтты": 4958,
      "ологийæ": 4959,
      "рати": 4960,
      "дæттын": 4961,
      "параш": 4962,
      "лæууы": 4963,
      "хайыг": 4964,
      "педагогты": 4965,
      "зæрдион": 4966,
      "побе": 4967,
      "кусгæйæ": 4968,
      "рауай": 4969,
      "айдта": 4970,
      "сезон": 4971,
      "Студен": 4972,
      "лия": 4973,
      "лигæ": 4974,
      "хъæды": 4975,
      "есна": 4976,
      "æхицæн": 4977,
      "здах": 4978,
      "ицион": 4979,
      "носты": 4980,
      "носоци": 4981,
      "ахсджиагдæр": 4982,
      "æрмæгæй": 4983,
      "бындурæвæр": 4984,
      "Хъараты": 4985,
      "биом": 4986,
      "программæтæй": 4987,
      "физи": 4988,
      "адæймæг": 4989,
      "риаты": 4990,
      "дидакт": 4991,
      "бынатæн": 4992,
      "хæдбар": 4993,
      "тырн": 4994,
      "тырнын": 4995,
      "елен": 4996,
      "елик": 4997,
      "филос": 4998,
      "филологтæ": 4999,
      "аргъæу": 5000,
      "адæмыхатты": 5001,
      "хызон": 5002,
      "базонынæн": 5003,
      "хæрдзтæ": 5004,
      "фæстæмæ": 5005,
      "Ахуыры": 5006,
      "Ахуырбег": 5007,
      "органты": 5008,
      "бирæвæрсыг": 5009,
      "разамонæджы": 5010,
      "кæсы": 5011,
      "отч": 5012,
      "æфсæр": 5013,
      "æфти": 5014,
      "æфхæрд": 5015,
      "уылты": 5016,
      "журналистон": 5017,
      "журналистики": 5018,
      "психологион": 5019,
      "Махар": 5020,
      "нывтæ": 5021,
      "хæдивæгКокайты": 5022,
      "хæдивæгТенгиз": 5023,
      "ахастытæм": 5024,
      "æфсæддонты": 5025,
      "альные": 5026,
      "тæрхон": 5027,
      "цымыди": 5028,
      "цæрæн": 5029,
      "цæрджытæн": 5030,
      "цæрыны": 5031,
      "нефты": 5032,
      "цæстуынгæ": 5033,
      "Æхсæнадон": 5034,
      "Æхсæнады": 5035,
      "конкурсон": 5036,
      "оригин": 5037,
      "зæгъæм": 5038,
      "уæвæг": 5039,
      "къордтæ": 5040,
      "фæндыд": 5041,
      "фæндыр": 5042,
      "Æрмæ": 5043,
      "Æрныхас": 5044,
      "хъæууон": 5045,
      "æвзæрсты": 5046,
      "æвзæрстой": 5047,
      "равзæрсты": 5048,
      "æрвыст": 5049,
      "райса": 5050,
      "географийы": 5051,
      "хæрзиу": 5052,
      "хæрзиуæг": 5053,
      "хæрзаудæн": 5054,
      "докладимæ": 5055,
      "картæ": 5056,
      "методикæйæ": 5057,
      "академи": 5058,
      "дарæг": 5059,
      "дариуæгады": 5060,
      "Иннæ": 5061,
      "Инносоци": 5062,
      "студентæй": 5063,
      "æстыты": 5064,
      "къабæзты": 5065,
      "гранттæ": 5066,
      "грантты": 5067,
      "премьер": 5068,
      "Родион": 5069,
      "миоп": 5070,
      "интегра": 5071,
      "финал": 5072,
      "фæхъ": 5073,
      "Маринæ": 5074,
      "иртæстыты": 5075,
      "хонынц": 5076,
      "арæхсы": 5077,
      "хъæппæрисæй": 5078,
      "Анатол": 5079,
      "бантыст": 5080,
      "дебю": 5081,
      "модел": 5082,
      "модератор": 5083,
      "фронты": 5084,
      "бынæттæм": 5085,
      "хыгъдмæ": 5086,
      "фæндонтæ": 5087,
      "æмбарынады": 5088,
      "сгуыхтдзинад": 5089,
      "Скъола": 5090,
      "водидакт": 5091,
      "ахастдзинæдтæ": 5092,
      "проблемæтыл": 5093,
      "хистæркълас": 5094,
      "Сæргълæу": 5095,
      "æвдисы": 5096,
      "фыссæджы": 5097,
      "Диал": 5098,
      "Равзæрст": 5099,
      "цæджын": 5100,
      "ныфсджын": 5101,
      "ныфсхаст": 5102,
      "бæстых": 5103,
      "цардæй": 5104,
      "æмгуыстадæн": 5105,
      "ников": 5106,
      "сызгъæр": 5107,
      "рæзтмæ": 5108,
      "иртасыны": 5109,
      "зондамонджытæ": 5110,
      "структурæ": 5111,
      "Æрыдоны": 5112,
      "Иумæйаг": 5113,
      "уагдонмæ": 5114,
      "уагдонæй": 5115,
      "гарз": 5116,
      "хосы": 5117,
      "æдасдзинад": 5118,
      "кусæнгæрз": 5119,
      "профцæдисы": 5120,
      "ауыраты": 5121,
      "цъары": 5122,
      "статус": 5123,
      "ирован": 5124,
      "поэмæ": 5125,
      "поэтикон": 5126,
      "Сочийы": 5127,
      "мож": 5128,
      "геополитикон": 5129,
      "химийæ": 5130,
      "категори": 5131,
      "Зонадон": 5132,
      "Сымах": 5133,
      "банымад": 5134,
      "ганскы": 5135,
      "галтерон": 5136,
      "æнкъарæн": 5137,
      "æмбарæм": 5138,
      "æвдисдзысты": 5139,
      "кълеткæты": 5140,
      "Иранимæ": 5141,
      "абитуриенттæ": 5142,
      "порталы": 5143,
      "коммуникаци": 5144,
      "коммуникациты": 5145,
      "Диссер": 5146,
      "лæуд": 5147,
      "ической": 5148,
      "æфсæдты": 5149,
      "Террит": 5150,
      "сценæйыл": 5151,
      "къамтæ": 5152,
      "идеологийы": 5153,
      "равзарыны": 5154,
      "зæрдæмæхъар": 5155,
      "этнографион": 5156,
      "этнической": 5157,
      "Осетии": 5158,
      "Гиль": 5159,
      "лингводидакт": 5160,
      "секциты": 5161,
      "хицауадæн": 5162,
      "сгуыхтытæ": 5163,
      "сгуыхтытыл": 5164,
      "Иртасæны": 5165,
      "Евраз": 5166,
      "Европ": 5167,
      "юбилей": 5168,
      "юбилейон": 5169,
      "бархионты": 5170,
      "фæзилæнтыл": 5171,
      "Фирдоусийы": 5172,
      "Фирдоусийæн": 5173,
      "Клуб": 5174,
      "фуран": 5175,
      "номыртæ": 5176,
      "комитеты": 5177,
      "терроризмы": 5178,
      "Валерий": 5179,
      "Медицинон": 5180,
      "уалдзыгон": 5181,
      "тыстджын": 5182,
      "агентад": 5183,
      "амалхъом": 5184,
      "клиникæ": 5185,
      "Дзырдта": 5186,
      "Дзырдтой": 5187,
      "межэтнической": 5188,
      "ветеранты": 5189,
      "телефонæй": 5190,
      "Сæйрагдæр": 5191,
      "удварн": 5192,
      "удварны": 5193,
      "популяци": 5194,
      "хъæбулы": 5195,
      "тренингтæ": 5196,
      "спортсментæ": 5197,
      "Рауагъдонтæн": 5198,
      "аудиторийы": 5199,
      "Денис": 5200,
      "Техн": 5201,
      "Элла": 5202,
      "чингуыты": 5203,
      "олькл": 5204,
      "райдиан": 5205,
      "экзам": 5206,
      "отрядты": 5207,
      "Æрвылаз": 5208,
      "бюджетон": 5209,
      "диагностикæ": 5210,
      "Казахстаны": 5211,
      "будущее": 5212,
      "Æлбег": 5213,
      "Мадинæ": 5214,
      "Новоси": 5215,
      "Север": 5216,
      "Турниры": 5217,
      "Чемпионат": 5218,
      "пновы": 5219,
      "скъуыд": 5220,
      "цуйы": 5221,
      "æрсидты": 5222,
      "æййаф": 5223,
      "Арфæйы": 5224,
      "зæрдиагæй": 5225,
      "коллектив": 5226,
      "патриотизм": 5227,
      "маршрут": 5228,
      "уынаффæгæнæг": 5229,
      "операцимæ": 5230,
      "Дискуссийы": 5231,
      "архитектурæ": 5232,
      "Балхъары": 5233,
      "Луганскы": 5234,
      "МГИМО": 5235,
      "Павел": 5236,
      "Учись": 5237,
      "аппараты": 5238,
      "бронзæ": 5239,
      "ждать": 5240,
      "космос": 5241,
      "мотив": 5242,
      "страна": 5243,
      "ныммыхуыр": 5244,
      "хабархæссæг": 5245,
      "минуты": 5246,
      "классты": 5247,
      "материалон": 5248,
      "Хъантемыраты": 5249,
      "ныхмæлæуды": 5250,
      "магистрант": 5251,
      "бафæлвардзысты": 5252,
      "кæрдæджыты": 5253,
      "Василь": 5254,
      "Граждайнаг": 5255,
      "Ломонос": 5256,
      "Хаджи": 5257,
      "амæттæгты": 5258,
      "бухгалтерон": 5259,
      "писмо": 5260,
      "пысылмон": 5261,
      "арвитдзысты": 5262,
      "бафтыдтой": 5263,
      "уæлæдарæсы": 5264,
      "Станислав": 5265,
      "Хъæбатыр": 5266,
      "хæдтæхджыты": 5267,
      "Æрæмбырдуæв": 5268,
      "волонтерты": 5269,
      "ныридæгæн": 5270,
      "æндæвдад": 5271,
      "трансформацийы": 5272,
      "Спектаклы": 5273,
      "схызтысты": 5274,
      "Донецкы": 5275,
      "Дагестаны": 5276,
      "Ацæмæз": 5277,
      "Базонгæ": 5278,
      "Ватутины": 5279,
      "Васойы": 5280,
      "Екатер": 5281,
      "Здæхт": 5282,
      "Крупновы": 5283,
      "Отечест": 5284,
      "Рамаз": 5285,
      "Тамбовы": 5286,
      "Хуытъиты": 5287,
      "Юридикон": 5288,
      "апрелы": 5289,
      "высшей": 5290,
      "гæрæнон": 5291,
      "кæстæр": 5292,
      "сгарæг": 5293,
      "языка": 5294,
      "тактикон": 5295,
      "ныппырх": 5296,
      "баскетбол": 5297,
      "æвирхъау": 5298,
      "парашю": 5299,
      "побеждать": 5300,
      "Студенч": 5301,
      "Инносоциум": 5302,
      "Родионов": 5303,
      "Анатолий": 5304,
      "дебют": 5305,
      "сызгъæрин": 5306,
      "зæрдæмæхъаргæ": 5307,
      "Новосибир": 5308,
      ");": 5309,
      "36": 5310,
      "44": 5311,
      "65": 5312,
      "90": 5313,
      "95": 5314,
      "KO": 5315,
      "RA": 5316,
      "ST": 5317,
      "VII": 5318,
      "ar": 5319,
      "ic": 5320,
      "li": 5321,
      "st": 5322,
      "»:": 5323,
      "Æб": 5324,
      "Æнæ": 5325,
      "Æппæтуæрæсе": 5326,
      "æтыл": 5327,
      "АИ": 5328,
      "Акт": 5329,
      "Ацыд": 5330,
      "Адæй": 5331,
      "Бын": 5332,
      "Бирæ": 5333,
      "Вер": 5334,
      "Врем": 5335,
      "ВНЦ": 5336,
      "Гуы": 5337,
      "Гол": 5338,
      "Гера": 5339,
      "Гасси": 5340,
      "Гарз": 5341,
      "Глобалон": 5342,
      "Ду": 5343,
      "Дан": 5344,
      "Дер": 5345,
      "Дам": 5346,
      "Дек": 5347,
      "Делег": 5348,
      "Дикт": 5349,
      "Дауыраты": 5350,
      "Ел": 5351,
      "Зал": 5352,
      "Иб": 5353,
      "Ки": 5354,
      "Кр": 5355,
      "Кор": 5356,
      "Кит": 5357,
      "Кус": 5358,
      "Куб": 5359,
      "Ле": 5360,
      "Лектор": 5361,
      "Лорæ": 5362,
      "МС": 5363,
      "Мат": 5364,
      "Мед": 5365,
      "Мирон": 5366,
      "Муз": 5367,
      "НК": 5368,
      "Над": 5369,
      "Нен": 5370,
      "Ней": 5371,
      "Нюр": 5372,
      "Ниж": 5373,
      "Об": 5374,
      "Ор": 5375,
      "Пол": 5376,
      "Пут": 5377,
      "Путины": 5378,
      "РИ": 5379,
      "РО": 5380,
      "Рад": 5381,
      "Рух": 5382,
      "Стæй": 5383,
      "Санд": 5384,
      "Спорт": 5385,
      "ТУ": 5386,
      "Ти": 5387,
      "Ту": 5388,
      "Том": 5389,
      "Таз": 5390,
      "Туаты": 5391,
      "Тмен": 5392,
      "Таврид": 5393,
      "ФУ": 5394,
      "Фæз": 5395,
      "Хæдз": 5396,
      "Хами": 5397,
      "Хоз": 5398,
      "Хæдар": 5399,
      "ХМИ": 5400,
      "Цар": 5401,
      "Цал": 5402,
      "Цæб": 5403,
      "Чоп": 5404,
      "Чиныг": 5405,
      "Чиныджы": 5406,
      "Шах": 5407,
      "Юлия": 5408,
      "асты": 5409,
      "афæл": 5410,
      "ацæуы": 5411,
      "асæй": 5412,
      "ацæугæйæ": 5413,
      "бун": 5414,
      "бæст": 5415,
      "боты": 5416,
      "вед": 5417,
      "вæнд": 5418,
      "весна": 5419,
      "гг": 5420,
      "газ": 5421,
      "гоны": 5422,
      "гим": 5423,
      "гæрон": 5424,
      "гомæй": 5425,
      "дт": 5426,
      "дан": 5427,
      "дтæй": 5428,
      "дтимæ": 5429,
      "дæттæн": 5430,
      "етæй": 5431,
      "жав": 5432,
      "зо": 5433,
      "зæйы": 5434,
      "згъ": 5435,
      "исп": 5436,
      "итеты": 5437,
      "ийæ": 5438,
      "ибар": 5439,
      "кты": 5440,
      "кий": 5441,
      "лад": 5442,
      "лæй": 5443,
      "лог": 5444,
      "латы": 5445,
      "лыс": 5446,
      "мæн": 5447,
      "мир": 5448,
      "магъ": 5449,
      "мед": 5450,
      "мег": 5451,
      "мани": 5452,
      "нты": 5453,
      "наз": 5454,
      "нæйы": 5455,
      "нæхи": 5456,
      "нано": 5457,
      "оч": 5458,
      "оди": 5459,
      "окад": 5460,
      "опол": 5461,
      "оск": 5462,
      "па": 5463,
      "пон": 5464,
      "паци": 5465,
      "пит": 5466,
      "пец": 5467,
      "рф": 5468,
      "рис": 5469,
      "рæвд": 5470,
      "рентген": 5471,
      "сек": 5472,
      "саха": 5473,
      "сджиаг": 5474,
      "сектор": 5475,
      "снысангонд": 5476,
      "сахат": 5477,
      "синте": 5478,
      "сбæлвырд": 5479,
      "сфæнд": 5480,
      "саба": 5481,
      "сцалцæг": 5482,
      "сæдæ": 5483,
      "тра": 5484,
      "тал": 5485,
      "тим": 5486,
      "туалон": 5487,
      "уй": 5488,
      "уу": 5489,
      "усы": 5490,
      "угæйæ": 5491,
      "уæнд": 5492,
      "фтæй": 5493,
      "фолькл": 5494,
      "хæ": 5495,
      "хт": 5496,
      "хом": 5497,
      "хоны": 5498,
      "хиу": 5499,
      "хæф": 5500,
      "цойты": 5501,
      "ццыл": 5502,
      "цæстыты": 5503,
      "чес": 5504,
      "чно": 5505,
      "шта": 5506,
      "штур": 5507,
      "ыхæтты": 5508,
      "ызт": 5509,
      "эп": 5510,
      "юз": 5511,
      "яци": 5512,
      "ӕл": 5513,
      "ӕм": 5514,
      "онтæн": 5515,
      "æнацион": 5516,
      "мæты": 5517,
      "мæзты": 5518,
      "æрбар": 5519,
      "æрцæудзæн": 5520,
      "æркæс": 5521,
      "æрцæудзысты": 5522,
      "æркуыр": 5523,
      "адрис": 5524,
      "сте": 5525,
      "став": 5526,
      "станд": 5527,
      "ари": 5528,
      "арвитын": 5529,
      "ынг": 5530,
      "раив": 5531,
      "ракодта": 5532,
      "рахы": 5533,
      "дзуæппытæ": 5534,
      "инæйæ": 5535,
      "инæйæн": 5536,
      "ень": 5537,
      "æгæм": 5538,
      "æгонд": 5539,
      "æгтыл": 5540,
      "ородский": 5541,
      "антон": 5542,
      "атип": 5543,
      "атмос": 5544,
      "алты": 5545,
      "алæу": 5546,
      "алчи": 5547,
      "цип": 5548,
      "цийæ": 5549,
      "ико": 5550,
      "тас": 5551,
      "табу": 5552,
      "уырдæм": 5553,
      "æхсты": 5554,
      "ойейы": 5555,
      "ойбайти": 5556,
      "ныры": 5557,
      "азар": 5558,
      "азыл": 5559,
      "азары": 5560,
      "цыт": 5561,
      "олаты": 5562,
      "урс": 5563,
      "урбан": 5564,
      "урочы": 5565,
      "хъалон": 5566,
      "хъахъхъ": 5567,
      "хъоты": 5568,
      "хъарм": 5569,
      "хъоти": 5570,
      "кæндзыстæм": 5571,
      "диæттæ": 5572,
      "при": 5573,
      "прод": 5574,
      "аудæг": 5575,
      "аууон": 5576,
      "рев": 5577,
      "реты": 5578,
      "кусæджы": 5579,
      "баци": 5580,
      "бакодта": 5581,
      "бафæр": 5582,
      "бакуыстой": 5583,
      "бафта": 5584,
      "бауром": 5585,
      "бафæндыд": 5586,
      "æви": 5587,
      "конд": 5588,
      "конф": 5589,
      "контек": 5590,
      "хайæ": 5591,
      "истинæ": 5592,
      "куый": 5593,
      "гæнгæ": 5594,
      "гæнæтæ": 5595,
      "гæнинаг": 5596,
      "къаг": 5597,
      "къоны": 5598,
      "къуын": 5599,
      "просы": 5600,
      "сытæ": 5601,
      "сырæзт": 5602,
      "гъуы": 5603,
      "изион": 5604,
      "изаци": 5605,
      "изацийы": 5606,
      "ирил": 5607,
      "ирвæзын": 5608,
      "ируй": 5609,
      "хуысы": 5610,
      "амил": 5611,
      "фæив": 5612,
      "архайæн": 5613,
      "район": 5614,
      "районты": 5615,
      "иум": 5616,
      "иудзинадæн": 5617,
      "гæст": 5618,
      "гæпп": 5619,
      "рыстон": 5620,
      "Алкæмæн": 5621,
      "авæн": 5622,
      "авто": 5623,
      "наук": 5624,
      "наука": 5625,
      "наукæйæн": 5626,
      "рдæм": 5627,
      "зоной": 5628,
      "Уæрæсемæ": 5629,
      "Уæрæсеимæ": 5630,
      "Уæрæсейæн": 5631,
      "æрдард": 5632,
      "емпл": 5633,
      "бынты": 5634,
      "туризмы": 5635,
      "ахуыргæнджытæй": 5636,
      "Аланимæ": 5637,
      "Алании": 5638,
      "Уыимæ": 5639,
      "мацы": 5640,
      "маил": 5641,
      "массæ": 5642,
      "икæйыл": 5643,
      "кæтæ": 5644,
      "блочы": 5645,
      "блокад": 5646,
      "ила": 5647,
      "илийы": 5648,
      "равзæрд": 5649,
      "равзарæн": 5650,
      "композ": 5651,
      "мыгг": 5652,
      "алыварс": 5653,
      "æвзист": 5654,
      "æвзæгтыл": 5655,
      "мæйты": 5656,
      "2015": 5657,
      "фыццаджыдæр": 5658,
      "историмæ": 5659,
      "арæзта": 5660,
      "барты": 5661,
      "барджын": 5662,
      "барвæн": 5663,
      "проекттæн": 5664,
      "проекттæй": 5665,
      "клеткæ": 5666,
      "класси": 5667,
      "хуызæн": 5668,
      "хуызисты": 5669,
      "хуызæгмæ": 5670,
      "ректорты": 5671,
      "уыйас": 5672,
      "хиуыл": 5673,
      "хиепископ": 5674,
      "нысаны": 5675,
      "Арс": 5676,
      "Арх": 5677,
      "Аргъ": 5678,
      "Архиепископ": 5679,
      "эко": 5680,
      "уагдæттæн": 5681,
      "куыстадон": 5682,
      "куыстимæ": 5683,
      "гуытæ": 5684,
      "баййæ": 5685,
      "иртасæджы": 5686,
      "ныхасæн": 5687,
      "гæнæнты": 5688,
      "гæнæнтимæ": 5689,
      "план": 5690,
      "фæндз": 5691,
      "фæзз": 5692,
      "фæзтæ": 5693,
      "æрыг": 5694,
      "архайдæн": 5695,
      "центртæ": 5696,
      "æгъæл": 5697,
      "айын": 5698,
      "2021": 5699,
      "университетмæ": 5700,
      "Дзи": 5701,
      "Дзанайты": 5702,
      "ройы": 5703,
      "рофест": 5704,
      "робот": 5705,
      "æвæрды": 5706,
      "скæйы": 5707,
      "ские": 5708,
      "технолог": 5709,
      "парисон": 5710,
      "егородский": 5711,
      "лæууыдысты": 5712,
      "евский": 5713,
      "евская": 5714,
      "месте": 5715,
      "экономист": 5716,
      "наукæтæй": 5717,
      "Контрактмæ": 5718,
      "зындзинæдтæ": 5719,
      "зындзинæдтыл": 5720,
      "дзаумæттæ": 5721,
      "арæзтады": 5722,
      "педагогтæн": 5723,
      "программӕ": 5724,
      "пост": 5725,
      "постер": 5726,
      "арæнтæй": 5727,
      "ийаг": 5728,
      "Ахсджиаг": 5729,
      "айдаг": 5730,
      "айденко": 5731,
      "баззай": 5732,
      "семæ": 5733,
      "дардмæ": 5734,
      "фæсивæдмæ": 5735,
      "мативон": 5736,
      "нояр": 5737,
      "органы": 5738,
      "акселератор": 5739,
      "æрмæджыты": 5740,
      "бындуртæ": 5741,
      "Уæлæмхасæн": 5742,
      "Хъус": 5743,
      "Хъайт": 5744,
      "Хъыры": 5745,
      "Хъойбайти": 5746,
      "практикæ": 5747,
      "рауагъта": 5748,
      "æххæстгæнæн": 5749,
      "фарсы": 5750,
      "фарстытæ": 5751,
      "бахъуыды": 5752,
      "бахъæудзæн": 5753,
      "фæрстытæм": 5754,
      "ысалты": 5755,
      "æнтыстыты": 5756,
      "фили": 5757,
      "æххуысмæ": 5758,
      "специалистæй": 5759,
      "æмбырдгонды": 5760,
      "Ахуыртæ": 5761,
      "Ахуыргæнæг": 5762,
      "химикты": 5763,
      "бирæнацион": 5764,
      "улæфты": 5765,
      "разамонджытæн": 5766,
      "разамонджыты": 5767,
      "фембæлдты": 5768,
      "кæсджытæн": 5769,
      "ахуырадæн": 5770,
      "сæрдартæ": 5771,
      "Ирыстонты": 5772,
      "фидардæр": 5773,
      "фидаргонд": 5774,
      "арфæтæ": 5775,
      "уæлахиздзауы": 5776,
      "формул": 5777,
      "журналисттæн": 5778,
      "хъуыдымæ": 5779,
      "ламируй": 5780,
      "нывгæнæг": 5781,
      "нывкæнынады": 5782,
      "нывгæнæджы": 5783,
      "хæдивæгХоды": 5784,
      "курсыты": 5785,
      "культурæтæ": 5786,
      "кандидаттæ": 5787,
      "æфсæддонтæн": 5788,
      "бакастытæ": 5789,
      "дексы": 5790,
      "овые": 5791,
      "æхсæнадтæ": 5792,
      "медицинæ": 5793,
      "балæвæрд": 5794,
      "балхæн": 5795,
      "цæстдарды": 5796,
      "уазал": 5797,
      "хæстонтæн": 5798,
      "ориалон": 5799,
      "сывæллоны": 5800,
      "сæхицæн": 5801,
      "уыдоныл": 5802,
      "æрбадтæй": 5803,
      "равзæрста": 5804,
      "офийы": 5805,
      "офлайн": 5806,
      "кадджындæр": 5807,
      "æнтыстдзинæдтæ": 5808,
      "хæрзиуджытæ": 5809,
      "Ныв": 5810,
      "Централон": 5811,
      "карз": 5812,
      "кармæ": 5813,
      "лæвæрдта": 5814,
      "кæронбæттæны": 5815,
      "методты": 5816,
      "академиктæ": 5817,
      "слов": 5818,
      "сляци": 5819,
      "дарынц": 5820,
      "озмож": 5821,
      "дæсныйадыл": 5822,
      "традицитимæ": 5823,
      "Националь": 5824,
      "150": 5825,
      "Педагогика": 5826,
      "темæтæ": 5827,
      "разæнгарды": 5828,
      "ический": 5829,
      "æхца": 5830,
      "президенты": 5831,
      "этапмæ": 5832,
      "этапæй": 5833,
      "фæхуыдтой": 5834,
      "мони": 5835,
      "ахуырдзауты": 5836,
      "агъдад": 5837,
      "разæнгарддзинад": 5838,
      "Университетæн": 5839,
      "Мараты": 5840,
      "Мария": 5841,
      "квантон": 5842,
      "саразыныл": 5843,
      "баиугæн": 5844,
      "Цытджын": 5845,
      "кцион": 5846,
      "РАНХи": 5847,
      "Иристон": 5848,
      "Преми": 5849,
      "банкъ": 5850,
      "зылдæй": 5851,
      "Совет": 5852,
      "боль": 5853,
      "фронтмæ": 5854,
      "равдисыны": 5855,
      "ныхмæлæуд": 5856,
      "алитет": 5857,
      "ныффыстой": 5858,
      "фæндонты": 5859,
      "уынаффæтыл": 5860,
      "дзурын": 5861,
      "дзургæйæ": 5862,
      "бацыдсты": 5863,
      "процессмæ": 5864,
      "сгуыхтдзинæдтæ": 5865,
      "цæттæдзинадыл": 5866,
      "бæлвырдæй": 5867,
      "фæлтæрты": 5868,
      "фæлтæрæн": 5869,
      "фæлтæрмæ": 5870,
      "аспирантты": 5871,
      "аспиранттæн": 5872,
      "воен": 5873,
      "лабораторон": 5874,
      "молоды": 5875,
      "хъæлдзæг": 5876,
      "проблемæты": 5877,
      "проблемæтæм": 5878,
      "дзæбæхгæнæн": 5879,
      "Абх": 5880,
      "тренаж": 5881,
      "ьян": 5882,
      "фыстæ": 5883,
      "фысгæйæ": 5884,
      "акцион": 5885,
      "Россий": 5886,
      "Владимиры": 5887,
      "Курчат": 5888,
      "Равдыстой": 5889,
      "хæлд": 5890,
      "нырмæ": 5891,
      "ныфсдæттæг": 5892,
      "къамисты": 5893,
      "хъæугæдзинад": 5894,
      "фæткмæ": 5895,
      "Таймæзты": 5896,
      "марафоны": 5897,
      "ерысы": 5898,
      "театры": 5899,
      "экспресс": 5900,
      "фæзуатыл": 5901,
      "кæрæдзиуыл": 5902,
      "генералон": 5903,
      "никуы": 5904,
      "туджы": 5905,
      "туйæ": 5906,
      "магистратур": 5907,
      "магистерон": 5908,
      "бахъахъхъæнæм": 5909,
      "Презентацийы": 5910,
      "трансляци": 5911,
      "уадзынæн": 5912,
      "æмбæлы": 5913,
      "æмбæлттæ": 5914,
      "иртасынæн": 5915,
      "иртасынмæ": 5916,
      "зондамонæг": 5917,
      "цæстдардмæ": 5918,
      "сахаты": 5919,
      "æмгуыстыл": 5920,
      "æвдисæндар": 5921,
      "буары": 5922,
      "хосæй": 5923,
      "хохы": 5924,
      "бецты": 5925,
      "гæххæт": 5926,
      "цъу": 5927,
      "цъар": 5928,
      "Команд": 5929,
      "Комкоммæ": 5930,
      "Комплек": 5931,
      "æрлæууыд": 5932,
      "дизайны": 5933,
      "авторты": 5934,
      "бæрндзинад": 5935,
      "поэз": 5936,
      "бæстæйон": 5937,
      "Петербург": 5938,
      "Петербургæй": 5939,
      "Финат": 5940,
      "чиныгдоны": 5941,
      "рацарæзты": 5942,
      "здæхтысты": 5943,
      "Бæрзонд": 5944,
      "Банк": 5945,
      "вице": 5946,
      "вазыгджындæр": 5947,
      "лæгдæр": 5948,
      "призер": 5949,
      "иугæндтæн": 5950,
      "ссарынæн": 5951,
      "экспертиз": 5952,
      "Сæрмагондæй": 5953,
      "æнцондæр": 5954,
      "æнцонвад": 5955,
      "цыртдзæвæны": 5956,
      "цыртдзæвæнмæ": 5957,
      "Тыхты": 5958,
      "семинары": 5959,
      "хизгæйæ": 5960,
      "телеуын": 5961,
      "æрдзурын": 5962,
      "музыкæ": 5963,
      "портал": 5964,
      "Тамарæ": 5965,
      "кæдфæнды": 5966,
      "тæлмацы": 5967,
      "предме": 5968,
      "æууæлтæм": 5969,
      "дискусситæ": 5970,
      "дискуссийы": 5971,
      "партнер": 5972,
      "дизайнертæ": 5973,
      "кипарисон": 5974,
      "сценæ": 5975,
      "тохы": 5976,
      "æмдзу": 5977,
      "æмдзæрæны": 5978,
      "хъазахъхъ": 5979,
      "зæрдæмæдзæугæ": 5980,
      "хæларзæрдæ": 5981,
      "энергийы": 5982,
      "История": 5983,
      "Историон": 5984,
      "Мæнæн": 5985,
      "Росатом": 5986,
      "къухфы": 5987,
      "позиум": 5988,
      "базарадон": 5989,
      "гæххæттытæ": 5990,
      "рæсугъддзинад": 5991,
      "XXXI": 5992,
      "Физикон": 5993,
      "трагикон": 5994,
      "æхсыны": 5995,
      "комплексы": 5996,
      "Дзæуджыхъæумæ": 5997,
      "фæзилæнтимæ": 5998,
      "парламентон": 5999,
      "æнæфæцудгæдзинад": 6000,
      "Адæмыхæтты": 6001,
      "Докл": 6002,
      "Докум": 6003,
      "фураны": 6004,
      "æмгъуыдмæ": 6005,
      "ивддзинæдтæ": 6006,
      "ивддзинæдты": 6007,
      "уынгты": 6008,
      "терроризм": 6009,
      "къласмæ": 6010,
      "æппынкъаддæр": 6011,
      "Валерия": 6012,
      "хъæрмхуыппы": 6013,
      "Герой": 6014,
      "берджы": 6015,
      "рæстдзинад": 6016,
      "атоми": 6017,
      "хъæздыгдзинад": 6018,
      "амынд": 6019,
      "Архайыны": 6020,
      "хъуыддагмæ": 6021,
      "объективон": 6022,
      "финалистты": 6023,
      "ветеран": 6024,
      "Сесси": 6025,
      "афæдз": 6026,
      "афæдзы": 6027,
      "зианхæссæг": 6028,
      "нæмттæ": 6029,
      "област": 6030,
      "схызт": 6031,
      "интерн": 6032,
      "райгуырдæй": 6033,
      "хабæртты": 6034,
      "Алибек": 6035,
      "турниры": 6036,
      "экстремизм": 6037,
      "фидæныл": 6038,
      "дуæрттæ": 6039,
      "Дипломтæ": 6040,
      "Тамерьян": 6041,
      "предметтæ": 6042,
      "промышленносты": 6043,
      "потенциалон": 6044,
      "Айзæ": 6045,
      "День": 6046,
      "Толасти": 6047,
      "Хуыбецты": 6048,
      "ЦКФЗ": 6049,
      "лекс": 6050,
      "лектортæ": 6051,
      "сюжет": 6052,
      "сюжеттæ": 6053,
      "удыхъæды": 6054,
      "цæстæй": 6055,
      "ӕрз": 6056,
      "препар": 6057,
      "райдианы": 6058,
      "бæрзæн": 6059,
      "бæрзæнд": 6060,
      "экземпл": 6061,
      "фармакологион": 6062,
      "Курдиат": 6063,
      "Курдиæттæ": 6064,
      "консультацитæ": 6065,
      "Казахстан": 6066,
      "мемуарты": 6067,
      "мемуартæ": 6068,
      "трагедийы": 6069,
      "бакалавриат": 6070,
      "инфраструктурæйы": 6071,
      "будущего": 6072,
      "экспедицийы": 6073,
      "Иван": 6074,
      "Кæсæг": 6075,
      "СТС": 6076,
      "Хими": 6077,
      "Хæрзиуæг": 6078,
      "сæххæсты": 6079,
      "трек": 6080,
      "хæзна": 6081,
      "стартапты": 6082,
      "куратортæ": 6083,
      "ирддæр": 6084,
      "раздахын": 6085,
      "ахуыргæнинæгты": 6086,
      "стажировкæтæ": 6087,
      "фæзуæттæй": 6088,
      "Профессионалон": 6089,
      "Профессионалы": 6090,
      "1994": 6091,
      "Абдулатип": 6092,
      "Валентин": 6093,
      "статистикон": 6094,
      "операторты": 6095,
      "субъектты": 6096,
      "героикон": 6097,
      "инвестицион": 6098,
      "индустрийы": 6099,
      "Эрнанде": 6100,
      "Эрнандес": 6101,
      "дыргъты": 6102,
      "бæллæхы": 6103,
      "механизмтæ": 6104,
      "Тимуры": 6105,
      "Æдæппæтæй": 6106,
      "Батраз": 6107,
      "Бирæтæ": 6108,
      "Калоты": 6109,
      "Мурат": 6110,
      "Салам": 6111,
      "Тарскæйы": 6112,
      "Умары": 6113,
      "Яндекс": 6114,
      "подготов": 6115,
      "скæйаг": 6116,
      "фадыджы": 6117,
      "школе": 6118,
      "ядерон": 6119,
      "аххосæгтæ": 6120,
      "хъахъхъæдта": 6121,
      "ссылкæмæ": 6122,
      "разование": 6123,
      "факттæ": 6124,
      "скæсæн": 6125,
      "педагогические": 6126,
      "æфтаугæйæ": 6127,
      "грамотæтæй": 6128,
      "Николаев": 6129,
      "ныууагъта": 6130,
      "Ленинград": 6131,
      "Джызойты": 6132,
      "Волг": 6133,
      "Измаил": 6134,
      "Кинонывы": 6135,
      "Радзырдтой": 6136,
      "Сбербанчы": 6137,
      "Фондз": 6138,
      "гыццыл": 6139,
      "златкæйы": 6140,
      "наме": 6141,
      "пале": 6142,
      "сфагнумы": 6143,
      "цæхæр": 6144,
      "шофыр": 6145,
      "хъуынаг": 6146,
      "принцип": 6147,
      "февра": 6148,
      "хуымæтæг": 6149,
      "машинæ": 6150,
      "профессионализм": 6151,
      "фармацийы": 6152,
      "фарстатæ": 6153,
      "Зауырбег": 6154,
      "Сывæллæтты": 6155,
      "æмдзæрæнтæ": 6156,
      "Краснодар": 6157,
      "публикаци": 6158,
      "Аминæ": 6159,
      "Академийы": 6160,
      "Майрæмы": 6161,
      "Петр": 6162,
      "РГО": 6163,
      "СНГ": 6164,
      "Степ": 6165,
      "Хорзæх": 6166,
      "дадзин": 6167,
      "жюрийы": 6168,
      "когнит": 6169,
      "мобил": 6170,
      "нормативон": 6171,
      "смыслов": 6172,
      "чъир": 6173,
      "æнæфæхицæн": 6174,
      "бацæуæн": 6175,
      "развития": 6176,
      "фыдыбæстæйон": 6177,
      "кластеры": 6178,
      "биомеди": 6179,
      "философийы": 6180,
      "оригиналон": 6181,
      "Æрмæст": 6182,
      "цæджындз": 6183,
      "бæстыхæй": 6184,
      "кусæнгæрзтæй": 6185,
      "банымадтой": 6186,
      "Диссертацион": 6187,
      "Гильди": 6188,
      "Евразийаг": 6189,
      "Европæйы": 6190,
      "Æлбегаты": 6191,
      "Северная": 6192,
      "патриотизмыл": 6193,
      "космосон": 6194,
      "Рамазан": 6195,
      "баскетболы": 6196,
      "парашютæй": 6197,
      "KOST": 6198,
      "Æппæтуæрæсейон": 6199,
      "АИШ": 6200,
      "Бындур": 6201,
      "Время": 6202,
      "Герасим": 6203,
      "Гасситы": 6204,
      "Гарзджын": 6205,
      "Думæйы": 6206,
      "Держав": 6207,
      "Дамир": 6208,
      "Декламируй": 6209,
      "Залинæ": 6210,
      "Ибраг": 6211,
      "Кристинæ": 6212,
      "Медвед": 6213,
      "Ненайденко": 6214,
      "Нейрофест": 6215,
      "Нюрн": 6216,
      "Нижегородский": 6217,
      "Путин": 6218,
      "Тменаты": 6219,
      "Хамихъоти": 6220,
      "Хозиты": 6221,
      "Хæдарцаты": 6222,
      "Царахаты": 6223,
      "Цæболты": 6224,
      "Чопикашв": 6225,
      "Шахнаме": 6226,
      "афæлгæст": 6227,
      "бæстуаты": 6228,
      "магъзы": 6229,
      "рæвдау": 6230,
      "рентгены": 6231,
      "секрет": 6232,
      "сахатæй": 6233,
      "сахатмæ": 6234,
      "сабаты": 6235,
      "ческом": 6236,
      "алæугæйæ": 6237,
      "азарыдысты": 6238,
      "хъахъхъæны": 6239,
      "аууонмæ": 6240,
      "контексты": 6241,
      "къуындæг": 6242,
      "робото": 6243,
      "постерный": 6244,
      "РАНХиГС": 6245,
      "молодых": 6246,
      "экспрессивон": 6247,
      "Комплекс": 6248,
      "Адæмыхæттыты": 6249,
      "подготовки": 6250,
      "шофыртæн": 6251,
      "æнæфæхицæнгæнгæ": 6252,
      "Державины": 6253,
      "02": 6254,
      "125": 6255,
      "37": 6256,
      "38": 6257,
      "39": 6258,
      "47": 6259,
      "48": 6260,
      "52": 6261,
      "62": 6262,
      "86": 6263,
      "97": 6264,
      "?»": 6265,
      "EX": 6266,
      "En": 6267,
      "VI": 6268,
      "XIX": 6269,
      "XVII": 6270,
      "di": 6271,
      "ll": 6272,
      "men": 6273,
      "ru": 6274,
      "um": 6275,
      "udi": 6276,
      "»),": 6277,
      "Æз": 6278,
      "Æпп": 6279,
      "Æмгуыст": 6280,
      "æбæрæг": 6281,
      "АР": 6282,
      "Ав": 6283,
      "Аив": 6284,
      "Атер": 6285,
      "АРТ": 6286,
      "АМС": 6287,
      "Бу": 6288,
      "Бэ": 6289,
      "Бас": 6290,
      "Бес": 6291,
      "Бул": 6292,
      "ВМ": 6293,
      "Вр": 6294,
      "Ваг": 6295,
      "Вахт": 6296,
      "Велик": 6297,
      "Гæ": 6298,
      "ГТ": 6299,
      "Гæг": 6300,
      "Газ": 6301,
      "Гран": 6302,
      "Гуæ": 6303,
      "Губ": 6304,
      "ГМИ": 6305,
      "Гетероцикликон": 6306,
      "Дæ": 6307,
      "Див": 6308,
      "ДПУ": 6309,
      "Дед": 6310,
      "Дейн": 6311,
      "ЕА": 6312,
      "ЕСТ": 6313,
      "Ерев": 6314,
      "Журн": 6315,
      "Зу": 6316,
      "Зелен": 6317,
      "ИТ": 6318,
      "ИФ": 6319,
      "Иде": 6320,
      "Ирайнаг": 6321,
      "Илаты": 6322,
      "Йе": 6323,
      "Ку": 6324,
      "Кæр": 6325,
      "Кæй": 6326,
      "Куыр": 6327,
      "Кре": 6328,
      "Кав": 6329,
      "Куз": 6330,
      "Касп": 6331,
      "Куль": 6332,
      "Кня": 6333,
      "Кцойты": 6334,
      "Камил": 6335,
      "Лер": 6336,
      "Лил": 6337,
      "Линг": 6338,
      "Лаборат": 6339,
      "МЫ": 6340,
      "Маг": 6341,
      "Мор": 6342,
      "Ман": 6343,
      "Мер": 6344,
      "Мур": 6345,
      "Мод": 6346,
      "Мас": 6347,
      "Моз": 6348,
      "Мæхъ": 6349,
      "МЭФ": 6350,
      "Не": 6351,
      "Нæр": 6352,
      "НПУ": 6353,
      "Назар": 6354,
      "Новые": 6355,
      "ОВ": 6356,
      "Он": 6357,
      "Оф": 6358,
      "ПП": 6359,
      "Поб": 6360,
      "ПМЭФ": 6361,
      "РФ": 6362,
      "Раг": 6363,
      "Рæгъ": 6364,
      "Рахиз": 6365,
      "Русс": 6366,
      "Си": 6367,
      "Сар": 6368,
      "Ску": 6369,
      "Сфæл": 6370,
      "Сим": 6371,
      "Сæрмæ": 6372,
      "Сгуых": 6373,
      "Сюз": 6374,
      "Сарæзта": 6375,
      "ТБ": 6376,
      "Теат": 6377,
      "Тынг": 6378,
      "Уæд": 6379,
      "Уфа": 6380,
      "Учитель": 6381,
      "ФМ": 6382,
      "Фу": 6383,
      "Фер": 6384,
      "Фарон": 6385,
      "Фраты": 6386,
      "ФОРТ": 6387,
      "Фæбæрæг": 6388,
      "Хо": 6389,
      "Хус": 6390,
      "Хæстон": 6391,
      "Хурхæтæны": 6392,
      "Хæлар": 6393,
      "Цæ": 6394,
      "Цу": 6395,
      "Цъ": 6396,
      "Цæл": 6397,
      "Шкар": 6398,
      "ЭК": 6399,
      "Яр": 6400,
      "аи": 6401,
      "ац": 6402,
      "ач": 6403,
      "аю": 6404,
      "аид": 6405,
      "ацæн": 6406,
      "ацæуынц": 6407,
      "асимæ": 6408,
      "аиуварс": 6409,
      "бо": 6410,
      "баг": 6411,
      "бен": 6412,
      "бæх": 6413,
      "бог": 6414,
      "бед": 6415,
      "бро": 6416,
      "борты": 6417,
      "бадзур": 6418,
      "вен": 6419,
      "вор": 6420,
      "вард": 6421,
      "вей": 6422,
      "вистикæ": 6423,
      "возмож": 6424,
      "га": 6425,
      "гу": 6426,
      "гов": 6427,
      "дав": 6428,
      "дег": 6429,
      "дрон": 6430,
      "дло": 6431,
      "дойæ": 6432,
      "есты": 6433,
      "еци": 6434,
      "емæй": 6435,
      "жев": 6436,
      "жюри": 6437,
      "жаю": 6438,
      "зæл": 6439,
      "зав": 6440,
      "згъæр": 6441,
      "иимæ": 6442,
      "йæх": 6443,
      "йемæ": 6444,
      "кӕ": 6445,
      "ккæйы": 6446,
      "ковы": 6447,
      "кова": 6448,
      "крит": 6449,
      "крас": 6450,
      "кого": 6451,
      "кирил": 6452,
      "лю": 6453,
      "лмæ": 6454,
      "лир": 6455,
      "лед": 6456,
      "луг": 6457,
      "мл": 6458,
      "мп": 6459,
      "мты": 6460,
      "мист": 6461,
      "маны": 6462,
      "мкусджыты": 6463,
      "нар": 6464,
      "нав": 6465,
      "ниаты": 6466,
      "нациты": 6467,
      "народ": 6468,
      "нтыстджын": 6469,
      "паст": 6470,
      "радз": 6471,
      "рарон": 6472,
      "рæды": 6473,
      "рынчын": 6474,
      "са": 6475,
      "сх": 6476,
      "сæл": 6477,
      "сент": 6478,
      "судент": 6479,
      "сам": 6480,
      "сем": 6481,
      "стæг": 6482,
      "саф": 6483,
      "сус": 6484,
      "суа": 6485,
      "скæнынæн": 6486,
      "схорзæх": 6487,
      "сфидар": 6488,
      "схъомыл": 6489,
      "сайты": 6490,
      "сдзæбæх": 6491,
      "сраст": 6492,
      "схиз": 6493,
      "сомæй": 6494,
      "сацигонд": 6495,
      "таг": 6496,
      "том": 6497,
      "троп": 6498,
      "ууы": 6499,
      "уди": 6500,
      "уæттæ": 6501,
      "уайт": 6502,
      "фан": 6503,
      "фикон": 6504,
      "фмет": 6505,
      "фӕн": 6506,
      "фцæдисы": 6507,
      "фдзаст": 6508,
      "фойейы": 6509,
      "хар": 6510,
      "хор": 6511,
      "хал": 6512,
      "худ": 6513,
      "хрон": 6514,
      "хусс": 6515,
      "цæй": 6516,
      "цас": 6517,
      "цæф": 6518,
      "цæлты": 6519,
      "чик": 6520,
      "ческ": 6521,
      "чение": 6522,
      "шин": 6523,
      "шов": 6524,
      "шиты": 6525,
      "шенко": 6526,
      "щие": 6527,
      "ъек": 6528,
      "ъиты": 6529,
      "ытæ": 6530,
      "ыфдзаст": 6531,
      "ьба": 6532,
      "эсс": 6533,
      "юсер": 6534,
      "юдойæ": 6535,
      "яры": 6536,
      "ябр": 6537,
      "яблок": 6538,
      "–«": 6539,
      "онгонд": 6540,
      "тысты": 6541,
      "тыны": 6542,
      "æнджы": 6543,
      "æнгæс": 6544,
      "æнæрлæу": 6545,
      "тæджы": 6546,
      "тæфæр": 6547,
      "тæртæ": 6548,
      "æрц": 6549,
      "æрбаз": 6550,
      "æрбал": 6551,
      "æрфыстой": 6552,
      "æрхæццæ": 6553,
      "уыны": 6554,
      "сто": 6555,
      "стон": 6556,
      "стæн": 6557,
      "стар": 6558,
      "стен": 6559,
      "стре": 6560,
      "стракт": 6561,
      "студи": 6562,
      "арь": 6563,
      "арой": 6564,
      "архæй": 6565,
      "аренко": 6566,
      "ынд": 6567,
      "ыномæй": 6568,
      "раси": 6569,
      "рапар": 6570,
      "рацæуæг": 6571,
      "ражаю": 6572,
      "дзон": 6573,
      "дзæгъæл": 6574,
      "дзюдойæ": 6575,
      "ахста": 6576,
      "индекс": 6577,
      "индексы": 6578,
      "агæй": 6579,
      "агре": 6580,
      "аграрон": 6581,
      "æгг": 6582,
      "æйаг": 6583,
      "орф": 6584,
      "оргæн": 6585,
      "оров": 6586,
      "орпораци": 6587,
      "антæ": 6588,
      "ания": 6589,
      "анатоми": 6590,
      "атæн": 6591,
      "атив": 6592,
      "атюр": 6593,
      "алид": 6594,
      "алмы": 6595,
      "алге": 6596,
      "ербай": 6597,
      "ерство": 6598,
      "айаг": 6599,
      "айраг": 6600,
      "дыуу": 6601,
      "æмг": 6602,
      "æмвæнд": 6603,
      "ике": 6604,
      "икы": 6605,
      "иккой": 6606,
      "тел": 6607,
      "теорийы": 6608,
      "таж": 6609,
      "омыл": 6610,
      "джытӕ": 6611,
      "ивынц": 6612,
      "ивая": 6613,
      "æххæстæй": 6614,
      "æхууы": 6615,
      "æтгæрон": 6616,
      "азимæ": 6617,
      "сийы": 6618,
      "цыппæр": 6619,
      "цыдæриддæр": 6620,
      "ургон": 6621,
      "хъуаты": 6622,
      "хъацæн": 6623,
      "кæнат": 6624,
      "ограды": 6625,
      "дил": 6626,
      "дипл": 6627,
      "енттæн": 6628,
      "ентьев": 6629,
      "ахуырты": 6630,
      "ауты": 6631,
      "ред": 6632,
      "рел": 6633,
      "рель": 6634,
      "ретор": 6635,
      "реализ": 6636,
      "реда": 6637,
      "куты": 6638,
      "кути": 6639,
      "куратурæйы": 6640,
      "бакæнын": 6641,
      "бакодтой": 6642,
      "бабар": 6643,
      "бафыссын": 6644,
      "конт": 6645,
      "коним": 6646,
      "конден": 6647,
      "контракт": 6648,
      "конфессион": 6649,
      "консерв": 6650,
      "удуæлдай": 6651,
      "удæнц": 6652,
      "хайадмæ": 6653,
      "хайбавæрд": 6654,
      "истан": 6655,
      "истикæйы": 6656,
      "оныгъ": 6657,
      "ыллæгдæр": 6658,
      "кодт": 6659,
      "атыр": 6660,
      "къу": 6661,
      "къавæн": 6662,
      "спик": 6663,
      "сыст": 6664,
      "сырд": 6665,
      "льго": 6666,
      "гъуыл": 6667,
      "гъуыды": 6668,
      "изав": 6669,
      "фессор": 6670,
      "фесаф": 6671,
      "студенткæйы": 6672,
      "ондри": 6673,
      "амбол": 6674,
      "фæцыд": 6675,
      "фæцæуы": 6676,
      "фæкæс": 6677,
      "фæкар": 6678,
      "фæдих": 6679,
      "архайдыл": 6680,
      "архайдзыстæм": 6681,
      "исын": 6682,
      "исæйы": 6683,
      "исов": 6684,
      "ислам": 6685,
      "райгонд": 6686,
      "райтынг": 6687,
      "иутæ": 6688,
      "иуаты": 6689,
      "иугæнæг": 6690,
      "иугонды": 6691,
      "овь": 6692,
      "овимæ": 6693,
      "овед": 6694,
      "овская": 6695,
      "хаста": 6696,
      "адзауы": 6697,
      "адзоры": 6698,
      "Ален": 6699,
      "Алайнаг": 6700,
      "науке": 6701,
      "научно": 6702,
      "рдар": 6703,
      "зонæм": 6704,
      "зонæдтæй": 6705,
      "ппмӕ": 6706,
      "идрат": 6707,
      "сыны": 6708,
      "ити": 6709,
      "итор": 6710,
      "итал": 6711,
      "итимæ": 6712,
      "итивон": 6713,
      "итъиты": 6714,
      "азыдысты": 6715,
      "æттæг": 6716,
      "æрдарын": 6717,
      "уæладзы": 6718,
      "ементалон": 6719,
      "ека": 6720,
      "бынтимæ": 6721,
      "разагъды": 6722,
      "тыхты": 6723,
      "тыхтон": 6724,
      "ахуыргæндтимæ": 6725,
      "етин": 6726,
      "етиктæ": 6727,
      "макуы": 6728,
      "стафе": 6729,
      "кæимæ": 6730,
      "кабин": 6731,
      "иммун": 6732,
      "æхсæнæдты": 6733,
      "ссий": 6734,
      "ссис": 6735,
      "блог": 6736,
      "илæн": 6737,
      "номхыгъд": 6738,
      "фаш": 6739,
      "ахъазыдысты": 6740,
      "коменд": 6741,
      "хæйтты": 6742,
      "рæзгæ": 6743,
      "факульте": 6744,
      "мæйон": 6745,
      "2030": 6746,
      "2018": 6747,
      "2016": 6748,
      "сæрмæтты": 6749,
      "сæрибар": 6750,
      "фыста": 6751,
      "фыцц": 6752,
      "история": 6753,
      "арæзтыл": 6754,
      "фæсарæнтæй": 6755,
      "фæсаууонмæ": 6756,
      "бæлæстæ": 6757,
      "бæлас": 6758,
      "проектмæ": 6759,
      "проектимæ": 6760,
      "клав": 6761,
      "клиент": 6762,
      "хуызтыл": 6763,
      "хуызæгты": 6764,
      "хуызистытæ": 6765,
      "доценты": 6766,
      "докто": 6767,
      "фæразон": 6768,
      "цæугæ": 6769,
      "цæугæд": 6770,
      "куыстытæн": 6771,
      "ректортæ": 6772,
      "ублевская": 6773,
      "факультетыацыд": 6774,
      "хицауы": 6775,
      "нысанимæ": 6776,
      "Архон": 6777,
      "ногдзинад": 6778,
      "ноггæнæг": 6779,
      "скъоладзауы": 6780,
      "федтой": 6781,
      "кадров": 6782,
      "»,-": 6783,
      "куысту": 6784,
      "культуры": 6785,
      "бæстæзонæн": 6786,
      "хæстимæ": 6787,
      "байгомæй": 6788,
      "иртасы": 6789,
      "гæнæнтæм": 6790,
      "полим": 6791,
      "уынд": 6792,
      "уынджы": 6793,
      "уыныны": 6794,
      "бæрæггонд": 6795,
      "бæрæгбонмæ": 6796,
      "фæндты": 6797,
      "фæндæгтæ": 6798,
      "фæныллæгдæр": 6799,
      "æрыздæхтысты": 6800,
      "Къами": 6801,
      "хæсæн": 6802,
      "алисттæ": 6803,
      "центрон": 6804,
      "радик": 6805,
      "2023": 6806,
      "университетон": 6807,
      "университеттимæ": 6808,
      "Дзамп": 6809,
      "Дзиуаты": 6810,
      "Дзитъиты": 6811,
      "æвæрæнтæ": 6812,
      "ской": 6813,
      "скоп": 6814,
      "ских": 6815,
      "ского": 6816,
      "технологон": 6817,
      "техникæйæ": 6818,
      "рупп": 6819,
      "ферæ": 6820,
      "ология": 6821,
      "услуг": 6822,
      "политикæмæ": 6823,
      "раттыны": 6824,
      "парал": 6825,
      "парти": 6826,
      "парож": 6827,
      "егкат": 6828,
      "лæууыд": 6829,
      "асай": 6830,
      "астæй": 6831,
      "асев": 6832,
      "евт": 6833,
      "мета": 6834,
      "экономикæмæ": 6835,
      "спортæй": 6836,
      "регионæн": 6837,
      "регионтæ": 6838,
      "зындæр": 6839,
      "зындзинад": 6840,
      "дзаумæ": 6841,
      "дзаутæ": 6842,
      "дзаумæтты": 6843,
      "дæсныйæдты": 6844,
      "дæсныйæдтæм": 6845,
      "цаутæн": 6846,
      "кусдзæн": 6847,
      "базæ": 6848,
      "дардта": 6849,
      "сæрмагондæй": 6850,
      "кæрты": 6851,
      "фадатимæ": 6852,
      "æхиуыл": 6853,
      "иртасæнтæм": 6854,
      "бацæттæгонд": 6855,
      "ицитæ": 6856,
      "аккреди": 6857,
      "бадт": 6858,
      "бадæт": 6859,
      "Федера": 6860,
      "æрмæджы": 6861,
      "фыццагон": 6862,
      "бындурты": 6863,
      "Уæллаг": 6864,
      "Хъуы": 6865,
      "Хъæрæсе": 6866,
      "Хъуыд": 6867,
      "Хъазты": 6868,
      "Хъуыды": 6869,
      "биты": 6870,
      "биаты": 6871,
      "биль": 6872,
      "биот": 6873,
      "зæрдæйы": 6874,
      "зæрдæтæ": 6875,
      "æххæстбарджын": 6876,
      "программæтæм": 6877,
      "программæтыл": 6878,
      "фылдæры": 6879,
      "Архайды": 6880,
      "Архайдзысты": 6881,
      "фарсты": 6882,
      "фарсмæ": 6883,
      "дзæгтæ": 6884,
      "бахъуыд": 6885,
      "тырны": 6886,
      "тырнæг": 6887,
      "фæрстытæй": 6888,
      "еля": 6889,
      "хъуыстой": 6890,
      "супер": 6891,
      "аргъуан": 6892,
      "æххуысгæнæг": 6893,
      "зонынад": 6894,
      "зонындзинæдты": 6895,
      "Профцæдисы": 6896,
      "Профессор": 6897,
      "геомет": 6898,
      "кæмæндæр": 6899,
      "хыз": 6900,
      "хызы": 6901,
      "спецификæ": 6902,
      "æмбырдтæ": 6903,
      "хæринаг": 6904,
      "Фыццаджыдæр": 6905,
      "Ахуырады": 6906,
      "Ахуыргæнджытæ": 6907,
      "Ахуырдзаутæ": 6908,
      "металл": 6909,
      "химик": 6910,
      "бастдзинады": 6911,
      "улæф": 6912,
      "минæвæрттæн": 6913,
      "эксперементалон": 6914,
      "кæсæм": 6915,
      "кæсджыты": 6916,
      "ахуырадмæ": 6917,
      "сæрдариуæг": 6918,
      "журнал": 6919,
      "современ": 6920,
      "термин": 6921,
      "дагамон": 6922,
      "ахуыргæнджытæм": 6923,
      "отно": 6924,
      "хъомыс": 6925,
      "хæдивæджы": 6926,
      "æфту": 6927,
      "Студенттимæ": 6928,
      "уæлахизы": 6929,
      "уæлахизтæ": 6930,
      "сæргълæууæгæй": 6931,
      "психологийы": 6932,
      "командæйæн": 6933,
      "командæйыл": 6934,
      "историимæ": 6935,
      "Реут": 6936,
      "Режиссер": 6937,
      "æдзæмæй": 6938,
      "дунемæ": 6939,
      "нывгæнджыты": 6940,
      "нывæфты": 6941,
      "нывистытæ": 6942,
      "нывонгонд": 6943,
      "ахастыл": 6944,
      "ахастытыл": 6945,
      "Министр": 6946,
      "астер": 6947,
      "астопол": 6948,
      "аивын": 6949,
      "кандидаттæм": 6950,
      "сфæлдис": 6951,
      "альм": 6952,
      "альпин": 6953,
      "фæлварæнтæ": 6954,
      "кълæст": 6955,
      "технологии": 6956,
      "технологитæй": 6957,
      "технологитæм": 6958,
      "цæрæну": 6959,
      "цæрынмæ": 6960,
      "цардыуаджы": 6961,
      "бавæр": 6962,
      "бавзæр": 6963,
      "мадзæлттыл": 6964,
      "мадзæлттæй": 6965,
      "здæхтмæ": 6966,
      "хъомылгæнæг": 6967,
      "горæттæ": 6968,
      "горæтæй": 6969,
      "города": 6970,
      "непров": 6971,
      "æхсæнадмæ": 6972,
      "балæвæрдтой": 6973,
      "скъоладзауæй": 6974,
      "общ": 6975,
      "ображаю": 6976,
      "хъæппæрисы": 6977,
      "конкурсмæ": 6978,
      "конкурстæ": 6979,
      "Республике": 6980,
      "ингы": 6981,
      "æппæтадæмон": 6982,
      "зæгъынц": 6983,
      "менков": 6984,
      "уæвыны": 6985,
      "уæвынæн": 6986,
      "уæвынмæ": 6987,
      "чырыстон": 6988,
      "Æрбадт": 6989,
      "сæхиуыл": 6990,
      "æмвæзады": 6991,
      "æмвæзадмæ": 6992,
      "лекциты": 6993,
      "лекцийæ": 6994,
      "райсой": 6995,
      "райсдзæн": 6996,
      "райсгæйæ": 6997,
      "хæрзаудæг": 6998,
      "дуг": 6999,
      "архивы": 7000,
      "докладтæм": 7001,
      "Ныгуыл": 7002,
      "картæтæ": 7003,
      "хъусджытæн": 7004,
      "математическ": 7005,
      "методтæм": 7006,
      "методикæ": 7007,
      "уæдæй": 7008,
      "декантæ": 7009,
      "деканПлиты": 7010,
      "деканДмитрий": 7011,
      "деканХæбæлаты": 7012,
      "факультеттæ": 7013,
      "доценттæ": 7014,
      "литературæмæ": 7015,
      "литературæйæ": 7016,
      "Инструктор": 7017,
      "озов": 7018,
      "конференцитæ": 7019,
      "компон": 7020,
      "хицæндзинад": 7021,
      "Уæлахизмæ": 7022,
      "Проректор": 7023,
      "фæзына": 7024,
      "фæзындтæ": 7025,
      "фæлтæрддзинадимæ": 7026,
      "1945": 7027,
      "саразæн": 7028,
      "1500": 7029,
      "къабæз": 7030,
      "дæсныйадимæ": 7031,
      "Хуссары": 7032,
      "гранты": 7033,
      "патент": 7034,
      "æнусæй": 7035,
      "инæйыл": 7036,
      "арфдæр": 7037,
      "динам": 7038,
      "динимæ": 7039,
      "корпораци": 7040,
      "фæхай": 7041,
      "активондæр": 7042,
      "дроны": 7043,
      "монографи": 7044,
      "монитор": 7045,
      "археологон": 7046,
      "фестивалмæ": 7047,
      "Маргар": 7048,
      "Марафон": 7049,
      "аспект": 7050,
      "квар": 7051,
      "кварт": 7052,
      "нымæрдар": 7053,
      "продукцийы": 7054,
      "иртæстытæ": 7055,
      "организатор": 7056,
      "грекъаг": 7057,
      "саразынмæ": 7058,
      "хъæппæристæм": 7059,
      "гуырæнтæ": 7060,
      "Аннæ": 7061,
      "Анна": 7062,
      "Цыппар": 7063,
      "равдыстмæ": 7064,
      "иртасджытæн": 7065,
      "Предло": 7066,
      "банк": 7067,
      "вырддæр": 7068,
      "грам": 7069,
      "графикæ": 7070,
      "хистæртæ": 7071,
      "кæцыйы": 7072,
      "кæцыфæнды": 7073,
      "модæ": 7074,
      "охондри": 7075,
      "инæгты": 7076,
      "инæгтæй": 7077,
      "цæттæдзинадимæ": 7078,
      "фæндагамон": 7079,
      "Влад": 7080,
      "выз": 7081,
      "дзурдзысты": 7082,
      "дзурынц": 7083,
      "æмбарынæн": 7084,
      "процесстæм": 7085,
      "сгуыхтдзинæдты": 7086,
      "аспирантур": 7087,
      "аспирантурæйы": 7088,
      "вопросы": 7089,
      "муль": 7090,
      "молодеж": 7091,
      "чемпионат": 7092,
      "Уыдонæй": 7093,
      "хистæртæн": 7094,
      "Абуль": 7095,
      "Куысты": 7096,
      "Сæрдыгон": 7097,
      "хъæдгом": 7098,
      "хъæддаг": 7099,
      "студенткæтæ": 7100,
      "фысгæ": 7101,
      "фыстæг": 7102,
      "фысджыты": 7103,
      "Курс": 7104,
      "хæлыны": 7105,
      "рахаста": 7106,
      "нырма": 7107,
      "ныфсджындæр": 7108,
      "ностей": 7109,
      "Æвзæрст": 7110,
      "бæстондæр": 7111,
      "мартъ": 7112,
      "эфиры": 7113,
      "университете": 7114,
      "клубты": 7115,
      "фæндаджы": 7116,
      "адæймагæн": 7117,
      "250": 7118,
      "Географи": 7119,
      "СКФУ": 7120,
      "Экспозици": 7121,
      "бюройы": 7122,
      "лыг": 7123,
      "уадзы": 7124,
      "уадзыны": 7125,
      "электроникæйæн": 7126,
      "æмбæлынц": 7127,
      "агъоммæйы": 7128,
      "равдисдзæн": 7129,
      "иртасынц": 7130,
      "профессионалты": 7131,
      "зондамонджытимæ": 7132,
      "структурæйы": 7133,
      "делегацийы": 7134,
      "делегаттæ": 7135,
      "ныртæккæйы": 7136,
      "бацæуынæн": 7137,
      "мысæны": 7138,
      "2003": 7139,
      "2004": 7140,
      "министрадимæ": 7141,
      "карьерон": 7142,
      "æвдисæнты": 7143,
      "æвдисæнтæ": 7144,
      "Хицæн": 7145,
      "гармони": 7146,
      "митохондри": 7147,
      "хæдзарон": 7148,
      "дисциплинарон": 7149,
      "уынаффæмæ": 7150,
      "Барба": 7151,
      "Русланы": 7152,
      "бегæн": 7153,
      "гæхх": 7154,
      "низтæй": 7155,
      "пъали": 7156,
      "стæджы": 7157,
      "тъæнджы": 7158,
      "цъыфдзаст": 7159,
      "анговы": 7160,
      "миниуджытæм": 7161,
      "оперативон": 7162,
      "дипломатийы": 7163,
      "арæхстгай": 7164,
      "корреспонденттæ": 7165,
      "Запарож": 7166,
      "Комитеты": 7167,
      "Ректоры": 7168,
      "ировани": 7169,
      "автортæ": 7170,
      "бæрндзинады": 7171,
      "Программæмæ": 7172,
      "квалификацийы": 7173,
      "диктанты": 7174,
      "ихаг": 7175,
      "рацаразын": 7176,
      "рацарæзтæн": 7177,
      "раиртæсты": 7178,
      "раиртæстыты": 7179,
      "проректорКокайты": 7180,
      "консулæй": 7181,
      "здæхтытæм": 7182,
      "геополитикæйы": 7183,
      "Георги": 7184,
      "Карасев": 7185,
      "Сымахæн": 7186,
      "быды": 7187,
      "бырон": 7188,
      "галуан": 7189,
      "гоймаг": 7190,
      "артист": 7191,
      "иугæндтæ": 7192,
      "Артуры": 7193,
      "республикæты": 7194,
      "медиакоммуникацийы": 7195,
      "цæрæгой": 7196,
      "цæрæгойты": 7197,
      "цæрæгойтæ": 7198,
      "чызджыты": 7199,
      "Альберт": 7200,
      "Серге": 7201,
      "уæзы": 7202,
      "уæздан": 7203,
      "ӕнд": 7204,
      "бæрæггæнæнтæм": 7205,
      "субси": 7206,
      "æрдзурдзысты": 7207,
      "цæстæнгасæй": 7208,
      "Скъоладзаутæ": 7209,
      "дисциплинæты": 7210,
      "Мæдинæйы": 7211,
      "жение": 7212,
      "кæддæриддæр": 7213,
      "милуаны": 7214,
      "тæлм": 7215,
      "æууæлтимæ": 7216,
      "минæварады": 7217,
      "курсанттæн": 7218,
      "дискусситы": 7219,
      "документтæ": 7220,
      "партнертæн": 7221,
      "спортсменты": 7222,
      "спортсмент": 7223,
      "горæтаг": 7224,
      "хæрзхъæддзинад": 7225,
      "бизнесæн": 7226,
      "бизнесимæ": 7227,
      "æнувыддзинад": 7228,
      "æнувыддзинады": 7229,
      "Æххæст": 7230,
      "Æхсар": 7231,
      "Азербай": 7232,
      "Терский": 7233,
      "Терентьев": 7234,
      "Эльзæ": 7235,
      "сценар": 7236,
      "алфави": 7237,
      "æмдзæвгæты": 7238,
      "гæнджытæм": 7239,
      "сымахæн": 7240,
      "сымахмæ": 7241,
      "равзардзысты": 7242,
      "министрБæгъиаты": 7243,
      "Фембæлдмæ": 7244,
      "музейон": 7245,
      "музейты": 7246,
      "этнологи": 7247,
      "нымæцон": 7248,
      "нымæцтæ": 7249,
      "футболы": 7250,
      "Ларс": 7251,
      "Ларисæйы": 7252,
      "Рауагъдад": 7253,
      "Специ": 7254,
      "Экономикæйы": 7255,
      "Экономикæ": 7256,
      "лæвæрттæй": 7257,
      "секцитæ": 7258,
      "æнхъæлæджы": 7259,
      "къухтæ": 7260,
      "позитивон": 7261,
      "хъæбатырдзинад": 7262,
      "хъæбатырдзинады": 7263,
      "сгуыхтыты": 7264,
      "церемонийы": 7265,
      "къахдзоныгъ": 7266,
      "пъланыл": 7267,
      "Бæрæгбон": 7268,
      "гоймæгты": 7269,
      "Бонæн": 7270,
      "Физкультурæ": 7271,
      "Физика": 7272,
      "кæрдæг": 7273,
      "кæрдæджы": 7274,
      "нæниздзинады": 7275,
      "юбилейы": 7276,
      "агурын": 7277,
      "агурынц": 7278,
      "агурынæн": 7279,
      "спозицийы": 7280,
      "равдыстыты": 7281,
      "бархионтæн": 7282,
      "фармацевт": 7283,
      "психология": 7284,
      "рухстауæн": 7285,
      "Уæлахиздзауты": 7286,
      "фæзилæнтæм": 7287,
      "парламентмæ": 7288,
      "семинартæ": 7289,
      "компетенциты": 7290,
      "Æппæтдунеон": 7291,
      "Багаты": 7292,
      "Коста": 7293,
      "Мысæн": 7294,
      "Скæсæн": 7295,
      "булкъоны": 7296,
      "ницы": 7297,
      "ничи": 7298,
      "фуранты": 7299,
      "стипендиты": 7300,
      "инвалид": 7301,
      "инженерты": 7302,
      "институтты": 7303,
      "ныууадз": 7304,
      "концерт": 7305,
      "æвзардзысты": 7306,
      "æвзаргæйæ": 7307,
      "æвзарынц": 7308,
      "фиддонтæ": 7309,
      "компанитæ": 7310,
      "ныййарджытæ": 7311,
      "Герман": 7312,
      "Рац": 7313,
      "Раиртæсты": 7314,
      "Регионы": 7315,
      "рæсттæрхон": 7316,
      "уалдзæг": 7317,
      "тæссагдзинæдты": 7318,
      "индукцион": 7319,
      "æгасцуйы": 7320,
      "атеросклер": 7321,
      "цифровизации": 7322,
      "амынды": 7323,
      "амалиуæг": 7324,
      "амалдариуæгады": 7325,
      "арæзтыты": 7326,
      "клиникæйы": 7327,
      "Архайын": 7328,
      "Архайынмæ": 7329,
      "объекттæ": 7330,
      "организацитæ": 7331,
      "тренеров": 7332,
      "церемонийæ": 7333,
      "къахдзæфтæ": 7334,
      "архитектор": 7335,
      "Ассоциаци": 7336,
      "Зæгъын": 7337,
      "Литератур": 7338,
      "НЦФМ": 7339,
      "бокы": 7340,
      "боксæй": 7341,
      "областæй": 7342,
      "учены": 7343,
      "циклтæ": 7344,
      "райгуырды": 7345,
      "хабæрттыл": 7346,
      "хабæрттæй": 7347,
      "экстремистон": 7348,
      "афоныл": 7349,
      "популярон": 7350,
      "рауадзынмæ": 7351,
      "бавæрдтой": 7352,
      "этнокультурон": 7353,
      "перспективон": 7354,
      "лабораторитæ": 7355,
      "Дианæйы": 7356,
      "территориалон": 7357,
      "территоритыл": 7358,
      "предметтæй": 7359,
      "промышленон": 7360,
      "ПАО": 7361,
      "ЦКХМИ": 7362,
      "лагерты": 7363,
      "латинаг": 7364,
      "маймæ": 7365,
      "цæсгом": 7366,
      "чингуытæ": 7367,
      "стоматологион": 7368,
      "аттестацийы": 7369,
      "преображаю": 7370,
      "барадхъахъхъæн": 7371,
      "фармакологийы": 7372,
      "уарзæг": 7373,
      "фæстиуджытæн": 7374,
      "фæстиуджытыл": 7375,
      "дамгъæтæ": 7376,
      "хæдзарады": 7377,
      "символикон": 7378,
      "ботаникæйы": 7379,
      "ботаниктæ": 7380,
      "тæлмацгонд": 7381,
      "текстур": 7382,
      "Биганаты": 7383,
      "бакалавриаты": 7384,
      "инфраструктурæ": 7385,
      "Æлборты": 7386,
      "Виктория": 7387,
      "Зындгонд": 7388,
      "Иванов": 7389,
      "Мадæлон": 7390,
      "Платы": 7391,
      "Севастопол": 7392,
      "Турнир": 7393,
      "Хæрзаудæн": 7394,
      "брендтæ": 7395,
      "легенд": 7396,
      "пневский": 7397,
      "ромаг": 7398,
      "сауджын": 7399,
      "фынæй": 7400,
      "огенетиктæ": 7401,
      "къуыри": 7402,
      "ахуыргæнинæгтæн": 7403,
      "фæзуæтты": 7404,
      "активисттæ": 7405,
      "æнтыстытæм": 7406,
      "коллективы": 7407,
      "Валентина": 7408,
      "статистикæйы": 7409,
      "субъекттæй": 7410,
      "индустри": 7411,
      "микрофл": 7412,
      "офицеры": 7413,
      "видеотæ": 7414,
      "Æдæппæт": 7415,
      "Батрадз": 7416,
      "Байаты": 7417,
      "Мура": 7418,
      "Фæнды": 7419,
      "Франци": 7420,
      "Фармация": 7421,
      "абаргæйæ": 7422,
      "бахизæны": 7423,
      "верность": 7424,
      "нейрон": 7425,
      "сæмбæлд": 7426,
      "цармы": 7427,
      "аххосæг": 7428,
      "антибиот": 7429,
      "ЦИПМА": 7430,
      "миниуджытимæ": 7431,
      "æвзарынмæ": 7432,
      "плакатон": 7433,
      "скæсæйнаг": 7434,
      "педагогических": 7435,
      "тенденцитæ": 7436,
      "корпус": 7437,
      "Николай": 7438,
      "сылгоймæгты": 7439,
      "ныууагътой": 7440,
      "хæцæнгарзæй": 7441,
      "Ленинграды": 7442,
      "Джызæлы": 7443,
      "Бæлвырддæр": 7444,
      "Белор": 7445,
      "Бæстондæр": 7446,
      "Горæтгæрон": 7447,
      "Габеты": 7448,
      "Габиты": 7449,
      "Илья": 7450,
      "Ильченко": 7451,
      "Колом": 7452,
      "София": 7453,
      "Софья": 7454,
      "Филологон": 7455,
      "Хасан": 7456,
      "Хайад": 7457,
      "нукл": 7458,
      "радзурын": 7459,
      "хауæг": 7460,
      "дзидз": 7461,
      "иннæтæн": 7462,
      "ресурсты": 7463,
      "бардзырдмæ": 7464,
      "баззад": 7465,
      "баззадысты": 7466,
      "Хъазыбег": 7467,
      "риестр": 7468,
      "риестры": 7469,
      "тæрсой": 7470,
      "тæрсут": 7471,
      "бацамыдта": 7472,
      "бацамыдтой": 7473,
      "душы": 7474,
      "волейболæй": 7475,
      "къахвæндæгтæ": 7476,
      "профилактикæйы": 7477,
      "комитетты": 7478,
      "терапийы": 7479,
      "шахматты": 7480,
      "ack": 7481,
      "ery": 7482,
      "Борьба": 7483,
      "Дунейон": 7484,
      "Добро": 7485,
      "Жаннæ": 7486,
      "Зæрдæ": 7487,
      "Роман": 7488,
      "Сувор": 7489,
      "Самая": 7490,
      "Турк": 7491,
      "Фæрниаты": 7492,
      "виртуалон": 7493,
      "крайы": 7494,
      "лейтен": 7495,
      "пакетты": 7496,
      "сомихаг": 7497,
      "адаптивон": 7498,
      "институтимæ": 7499,
      "инструкторты": 7500,
      "хъысмæты": 7501,
      "концепци": 7502,
      "сырх": 7503,
      "фæдзæхста": 7504,
      "Артеменков": 7505,
      "русского": 7506,
      "хайыгтæ": 7507,
      "рауайдзæн": 7508,
      "здахын": 7509,
      "бындурæвæрæг": 7510,
      "физиологи": 7511,
      "Махарбек": 7512,
      "цымыдисы": 7513,
      "премьерæ": 7514,
      "миопийы": 7515,
      "Сæргълæууæджы": 7516,
      "Диалоджы": 7517,
      "ныфсджынæй": 7518,
      "Клубы": 7519,
      "экзамен": 7520,
      "скъуыддзæгтæ": 7521,
      "æййафынц": 7522,
      "Васильева": 7523,
      "Ломоносовы": 7524,
      "Хъæбатырты": 7525,
      "Æрæмбырдуæвджытæн": 7526,
      "Отечества": 7527,
      "Студенческая": 7528,
      "Новосибирскы": 7529,
      "RAEX": 7530,
      "art": 7531,
      "Адæймаджы": 7532,
      "Елизав": 7533,
      "Китай": 7534,
      "Кубаны": 7535,
      "Образование": 7536,
      "Орган": 7537,
      "Томайты": 7538,
      "Тазреты": 7539,
      "Хæдзары": 7540,
      "Цалдæр": 7541,
      "испайнаг": 7542,
      "лыстæг": 7543,
      "пецтæ": 7544,
      "хомагæй": 7545,
      "хиуæттæн": 7546,
      "хæфсытæ": 7547,
      "штабы": 7548,
      "штурм": 7549,
      "эпикон": 7550,
      "æркуырд": 7551,
      "адрисмæ": 7552,
      "арифмет": 7553,
      "рахызт": 7554,
      "атмосферæ": 7555,
      "табуйаг": 7556,
      "хъалонæвæрды": 7557,
      "продюсер": 7558,
      "бафтауын": 7559,
      "куыйты": 7560,
      "фæивар": 7561,
      "автоклав": 7562,
      "мыггаджы": 7563,
      "барвæндæй": 7564,
      "классическом": 7565,
      "Архивон": 7566,
      "баййæфта": 7567,
      "фæндзæм": 7568,
      "Хъырымы": 7569,
      "уазалгæнæн": 7570,
      "Национальная": 7571,
      "большев": 7572,
      "военком": 7573,
      "тренажер": 7574,
      "Российская": 7575,
      "магистратурæ": 7576,
      "цъуппмӕ": 7577,
      "Финатлон": 7578,
      "æнцонвадат": 7579,
      "телеуынадон": 7580,
      "предметæй": 7581,
      "хъазахъхъæгты": 7582,
      "афæдзмæ": 7583,
      "интернет": 7584,
      "Алибекова": 7585,
      "ӕрзӕнд": 7586,
      "экземпляры": 7587,
      "хæзнатæ": 7588,
      "Абдулатипов": 7589,
      "Эрнандесы": 7590,
      "скæсæнзонынады": 7591,
      "Волгограды": 7592,
      "палеогенетиктæ": 7593,
      "цæхæрадон": 7594,
      "Хорзæхджын": 7595,
      "дадзинты": 7596,
      "когнитивон": 7597,
      "мобилон": 7598,
      "чъиритæ": 7599,
      "Ибрагим": 7600,
      "Медведь": 7601,
      "Нюрнберджы": 7602,
      "Чопикашвилийы": 7603,
      "робототехникæ": 7604,
      "Комплексная": 7605,
      "Eng": 7606,
      "udies": 7607,
      "Атеросклероз": 7608,
      "ВМЕСТ": 7609,
      "Врублевская": 7610,
      "Вагаб": 7611,
      "Вахтанговы": 7612,
      "Гæгкуты": 7613,
      "Газпром": 7614,
      "Гуæцæлты": 7615,
      "Дедегкат": 7616,
      "Журналист": 7617,
      "Зеленое": 7618,
      "Идеи": 7619,
      "Куырдиæттæ": 7620,
      "Кузне": 7621,
      "Княз": 7622,
      "Лермон": 7623,
      "Лилия": 7624,
      "Лингвистикæ": 7625,
      "МЫВМЕСТ": 7626,
      "Морозов": 7627,
      "Мозгов": 7628,
      "Нæртон": 7629,
      "Онлайн": 7630,
      "Рæгъмæ": 7631,
      "Рахизфарсы": 7632,
      "Сихъоты": 7633,
      "Скупневский": 7634,
      "Симпозиум": 7635,
      "Сæрмæт": 7636,
      "Сгуыхт": 7637,
      "Сюзан": 7638,
      "Театр": 7639,
      "Цуциты": 7640,
      "Шкарина": 7641,
      "Ярмар": 7642,
      "возможностей": 7643,
      "дегидрат": 7644,
      "емæйæн": 7645,
      "йæхимæ": 7646,
      "красивая": 7647,
      "самшиты": 7648,
      "тропа": 7649,
      "уайтагъд": 7650,
      "фӕндагамон": 7651,
      "ябрæй": 7652,
      "яблоко": 7653,
      "æнæрлæугæ": 7654,
      "тæфæрфæс": 7655,
      "æхууыс": 7656,
      "дипломæй": 7657,
      "редактор": 7658,
      "конденсацигонд": 7659,
      "сырдтæ": 7660,
      "фæкарздæр": 7661,
      "докторан": 7662,
      "Архонкæйы": 7663,
      "Къамисы": 7664,
      "Дзампаты": 7665,
      "металлургон": 7666,
      "æфтуан": 7667,
      "Абулька": 7668,
      "мартъийы": 7669,
      "спортсментимæ": 7670,
      "Азербайдж": 7671,
      "алфавитæй": 7672,
      "къахдзоныгътыл": 7673,
      "преображающие": 7674,
      "Дедегкати": 7675,
      "МЫВМЕСТЕ": 7676,
      "Мозговой": 7677,
      "дегидратортæ": 7678,
      "!.": 7679,
      "!»,–": 7680,
      "!»–": 7681,
      "!”-": 7682,
      "%-": 7683,
      ")»-": 7684,
      ",–": 7685,
      "110": 7686,
      "227": 7687,
      "316": 7688,
      "49": 7689,
      "450": 7690,
      "57": 7691,
      "58": 7692,
      "76": 7693,
      "7000": 7694,
      "82": 7695,
      "87": 7696,
      "92": 7697,
      "98": 7698,
      "99": 7699,
      "?.": 7700,
      "Al": 7701,
      "Ar": 7702,
      "De": 7703,
      "ED": 7704,
      "FP": 7705,
      "KA": 7706,
      "ON": 7707,
      "OZ": 7708,
      "PR": 7709,
      "Tal": 7710,
      "TED": 7711,
      "XIII": 7712,
      "am": 7713,
      "as": 7714,
      "at": 7715,
      "de": 7716,
      "eg": 7717,
      "et": 7718,
      "ks": 7719,
      "nd": 7720,
      "on": 7721,
      "oo": 7722,
      "op": 7723,
      "or": 7724,
      "ran": 7725,
      "sh": 7726,
      "ss": 7727,
      "ual": 7728,
      "ya": 7729,
      "»).": 7730,
      "»!.": 7731,
      "Æмбæл": 7732,
      "Æцæг": 7733,
      "Æххуыс": 7734,
      "æтæг": 7735,
      "АО": 7736,
      "АП": 7737,
      "Ад": 7738,
      "Ат": 7739,
      "Аба": 7740,
      "Акъ": 7741,
      "Ацæудзæн": 7742,
      "Абоны": 7743,
      "Асл": 7744,
      "Активон": 7745,
      "Арæзт": 7746,
      "Астæ": 7747,
      "Ави": 7748,
      "АНО": 7749,
      "Афан": 7750,
      "Бо": 7751,
      "Бы": 7752,
      "Бер": 7753,
      "Бау": 7754,
      "Бады": 7755,
      "БПУ": 7756,
      "Бит": 7757,
      "Баб": 7758,
      "Быр": 7759,
      "Бак": 7760,
      "Баст": 7761,
      "Бест": 7762,
      "Бæц": 7763,
      "Био": 7764,
      "Била": 7765,
      "БЭК": 7766,
      "ВЫ": 7767,
      "Вы": 7768,
      "Вин": 7769,
      "Ван": 7770,
      "Верон": 7771,
      "Вместе": 7772,
      "ВТБ": 7773,
      "Витал": 7774,
      "ГП": 7775,
      "Гон": 7776,
      "Гуыр": 7777,
      "Гим": 7778,
      "Гут": 7779,
      "Гри": 7780,
      "Гос": 7781,
      "Гоб": 7782,
      "Гоз": 7783,
      "Гле": 7784,
      "Годжы": 7785,
      "Гадж": 7786,
      "Гранты": 7787,
      "Гелен": 7788,
      "Дин": 7789,
      "Дат": 7790,
      "Дом": 7791,
      "Дой": 7792,
      "Дуд": 7793,
      "Доны": 7794,
      "Дид": 7795,
      "Дуб": 7796,
      "Дани": 7797,
      "Дая": 7798,
      "ДСП": 7799,
      "ДНК": 7800,
      "Днепров": 7801,
      "Егъау": 7802,
      "Един": 7803,
      "Зоны": 7804,
      "Зем": 7805,
      "Засс": 7806,
      "Загъта": 7807,
      "ЗОВ": 7808,
      "ИÆ": 7809,
      "ИО": 7810,
      "Исæн": 7811,
      "ИПУ": 7812,
      "Исс": 7813,
      "Иттæ": 7814,
      "Иерей": 7815,
      "Иунæг": 7816,
      "Йор": 7817,
      "Кс": 7818,
      "Кæм": 7819,
      "Конд": 7820,
      "Крав": 7821,
      "Коп": 7822,
      "Каст": 7823,
      "Кусын": 7824,
      "Кве": 7825,
      "Куды": 7826,
      "Лю": 7827,
      "Лаз": 7828,
      "Лид": 7829,
      "Лев": 7830,
      "Лекцийы": 7831,
      "Лолаты": 7832,
      "Лæгг": 7833,
      "МЧ": 7834,
      "Ма": 7835,
      "Мя": 7836,
      "Мон": 7837,
      "Маха": 7838,
      "Мег": 7839,
      "Морг": 7840,
      "Монг": 7841,
      "Мох": 7842,
      "Мæрз": 7843,
      "Меж": 7844,
      "Моск": 7845,
      "Мастер": 7846,
      "НИ": 7847,
      "Нью": 7848,
      "Народ": 7849,
      "Налцы": 7850,
      "От": 7851,
      "Ост": 7852,
      "Обу": 7853,
      "ОГЭ": 7854,
      "По": 7855,
      "Пон": 7856,
      "Практ": 7857,
      "Поп": 7858,
      "Пле": 7859,
      "Правлен": 7860,
      "Пысыл": 7861,
      "Пож": 7862,
      "Пайдаг": 7863,
      "Рæм": 7864,
      "СЫ": 7865,
      "Сæл": 7866,
      "Сол": 7867,
      "Суд": 7868,
      "Сист": 7869,
      "Сун": 7870,
      "Сыл": 7871,
      "Сид": 7872,
      "Сæрд": 7873,
      "Сем": 7874,
      "Сарæзт": 7875,
      "Соци": 7876,
      "Сок": 7877,
      "Сул": 7878,
      "Скол": 7879,
      "Сила": 7880,
      "То": 7881,
      "Тъ": 7882,
      "Тæр": 7883,
      "Тæс": 7884,
      "Тал": 7885,
      "Тæл": 7886,
      "Тит": 7887,
      "Трад": 7888,
      "Такт": 7889,
      "Тел": 7890,
      "Тох": 7891,
      "Тоты": 7892,
      "Теор": 7893,
      "Уе": 7894,
      "Ур": 7895,
      "Уын": 7896,
      "Уаг": 7897,
      "Уæз": 7898,
      "УПУ": 7899,
      "Уль": 7900,
      "Уадз": 7901,
      "Ууыл": 7902,
      "Управлен": 7903,
      "УСО": 7904,
      "Уæхиуыл": 7905,
      "УИÆ": 7906,
      "Фе": 7907,
      "Фун": 7908,
      "Фæст": 7909,
      "Фаб": 7910,
      "Фриаты": 7911,
      "ФАР": 7912,
      "ХХ": 7913,
      "Хат": 7914,
      "Хер": 7915,
      "Хады": 7916,
      "Хак": 7917,
      "Хож": 7918,
      "Хадзы": 7919,
      "Хуынд": 7920,
      "ХИПУ": 7921,
      "Ци": 7922,
      "Цæст": 7923,
      "Цыр": 7924,
      "Цӕг": 7925,
      "Цæлы": 7926,
      "Чон": 7927,
      "ША": 7928,
      "Шо": 7929,
      "Шаг": 7930,
      "Шев": 7931,
      "Шри": 7932,
      "Шве": 7933,
      "Швей": 7934,
      "Эд": 7935,
      "Эт": 7936,
      "Электрон": 7937,
      "Этн": 7938,
      "Юж": 7939,
      "Юный": 7940,
      "Юсу": 7941,
      "Яд": 7942,
      "Япон": 7943,
      "аэ": 7944,
      "асæн": 7945,
      "афы": 7946,
      "апар": 7947,
      "ашв": 7948,
      "ацæуæг": 7949,
      "бс": 7950,
      "бра": 7951,
      "бор": 7952,
      "бæйы": 7953,
      "бры": 7954,
      "бæтты": 7955,
      "без": 7956,
      "бГУ": 7957,
      "бовь": 7958,
      "бӕрзӕнд": 7959,
      "вд": 7960,
      "ву": 7961,
      "вӕ": 7962,
      "вой": 7963,
      "верси": 7964,
      "вид": 7965,
      "вайы": 7966,
      "вас": 7967,
      "все": 7968,
      "ванд": 7969,
      "вок": 7970,
      "вест": 7971,
      "вæрæн": 7972,
      "вгъау": 7973,
      "взаг": 7974,
      "вместе": 7975,
      "гæм": 7976,
      "гæл": 7977,
      "гур": 7978,
      "гист": 7979,
      "гаты": 7980,
      "гро": 7981,
      "гак": 7982,
      "ганы": 7983,
      "гæзты": 7984,
      "гвар": 7985,
      "гӕн": 7986,
      "гетероцикл": 7987,
      "дер": 7988,
      "дры": 7989,
      "дем": 7990,
      "дтæм": 7991,
      "дтон": 7992,
      "дня": 7993,
      "еф": 7994,
      "еш": 7995,
      "еды": 7996,
      "ета": 7997,
      "етæн": 7998,
      "еалон": 7999,
      "ейæ": 8000,
      "ежы": 8001,
      "епар": 8002,
      "ефон": 8003,
      "еаттæ": 8004,
      "еографион": 8005,
      "жын": 8006,
      "жæйы": 8007,
      "жел": 8008,
      "зн": 8009,
      "зӕ": 8010,
      "зол": 8011,
      "зист": 8012,
      "зам": 8013,
      "зуан": 8014,
      "зæлы": 8015,
      "иц": 8016,
      "иды": 8017,
      "ита": 8018,
      "иди": 8019,
      "итæг": 8020,
      "ипо": 8021,
      "иоз": 8022,
      "ифты": 8023,
      "иант": 8024,
      "иенко": 8025,
      "итель": 8026,
      "иашв": 8027,
      "ймаг": 8028,
      "йаф": 8029,
      "кд": 8030,
      "каз": 8031,
      "кры": 8032,
      "камп": 8033,
      "лтæ": 8034,
      "лой": 8035,
      "лæйы": 8036,
      "лоны": 8037,
      "лæтæ": 8038,
      "ммæ": 8039,
      "мыл": 8040,
      "мийы": 8041,
      "мут": 8042,
      "моци": 8043,
      "менталон": 8044,
      "мгъуыд": 8045,
      "нс": 8046,
      "нь": 8047,
      "ню": 8048,
      "нӕ": 8049,
      "нон": 8050,
      "нæр": 8051,
      "нæх": 8052,
      "нæз": 8053,
      "нимæ": 8054,
      "наци": 8055,
      "нев": 8056,
      "новы": 8057,
      "надыл": 8058,
      "нæгтæ": 8059,
      "намы": 8060,
      "нави": 8061,
      "отæ": 8062,
      "оун": 8063,
      "окл": 8064,
      "обай": 8065,
      "озы": 8066,
      "оионы": 8067,
      "пу": 8068,
      "пæр": 8069,
      "пæйы": 8070,
      "пилотон": 8071,
      "пдæттæг": 8072,
      "пье": 8073,
      "пень": 8074,
      "пайдаг": 8075,
      "рой": 8076,
      "рог": 8077,
      "рæд": 8078,
      "рион": 8079,
      "рæтты": 8080,
      "рыны": 8081,
      "рхъуыды": 8082,
      "ромы": 8083,
      "ровы": 8084,
      "ринг": 8085,
      "роль": 8086,
      "рдыгæй": 8087,
      "св": 8088,
      "сой": 8089,
      "сол": 8090,
      "соны": 8091,
      "скуы": 8092,
      "саты": 8093,
      "сагъ": 8094,
      "скæныны": 8095,
      "сджыты": 8096,
      "сфер": 8097,
      "сæвæрд": 8098,
      "скусын": 8099,
      "сагъд": 8100,
      "сарæх": 8101,
      "свæййы": 8102,
      "скæнæн": 8103,
      "суыдзыстут": 8104,
      "сников": 8105,
      "сбор": 8106,
      "тин": 8107,
      "тан": 8108,
      "тид": 8109,
      "тит": 8110,
      "ткæй": 8111,
      "тий": 8112,
      "ток": 8113,
      "товы": 8114,
      "тдзæв": 8115,
      "ттӕ": 8116,
      "тальм": 8117,
      "утæ": 8118,
      "уæр": 8119,
      "уджы": 8120,
      "угъ": 8121,
      "устой": 8122,
      "успе": 8123,
      "уаргъ": 8124,
      "уæрæхдæр": 8125,
      "устыл": 8126,
      "учитель": 8127,
      "уальные": 8128,
      "упень": 8129,
      "фӕ": 8130,
      "фст": 8131,
      "фист": 8132,
      "фис": 8133,
      "фраз": 8134,
      "фран": 8135,
      "фот": 8136,
      "фтмæ": 8137,
      "ху": 8138,
      "хӕ": 8139,
      "хаг": 8140,
      "хæм": 8141,
      "хуыр": 8142,
      "хол": 8143,
      "хонд": 8144,
      "хийы": 8145,
      "хдур": 8146,
      "хины": 8147,
      "хæцц": 8148,
      "хæфсæн": 8149,
      "ххуысы": 8150,
      "хатыр": 8151,
      "цӕ": 8152,
      "цæры": 8153,
      "цайы": 8154,
      "цæджы": 8155,
      "цуз": 8156,
      "цины": 8157,
      "цæди": 8158,
      "цух": 8159,
      "цинæйы": 8160,
      "цӕу": 8161,
      "цназ": 8162,
      "чар": 8163,
      "чив": 8164,
      "чинг": 8165,
      "ччы": 8166,
      "чтен": 8167,
      "чкал": 8168,
      "чук": 8169,
      "чное": 8170,
      "чиныджы": 8171,
      "честы": 8172,
      "шен": 8173,
      "шим": 8174,
      "шко": 8175,
      "ълан": 8176,
      "ыг": 8177,
      "ыстой": 8178,
      "ыфæлгæтты": 8179,
      "ызты": 8180,
      "ыгдæр": 8181,
      "эст": 8182,
      "эконим": 8183,
      "эстафе": 8184,
      "эмоци": 8185,
      "юст": 8186,
      "юме": 8187,
      "юни": 8188,
      "ям": 8189,
      "яков": 8190,
      "ябры": 8191,
      "яхины": 8192,
      "”.": 8193,
      "онæн": 8194,
      "онаты": 8195,
      "онид": 8196,
      "онтимæ": 8197,
      "æнæз": 8198,
      "æнадæмон": 8199,
      "æнæмæлгæ": 8200,
      "æнæзон": 8201,
      "æнæнхъæлæджы": 8202,
      "мæц": 8203,
      "мæртæ": 8204,
      "мæтаг": 8205,
      "мæскуы": 8206,
      "тæмæ": 8207,
      "тæдзæн": 8208,
      "тæрд": 8209,
      "æргъ": 8210,
      "æрбынат": 8211,
      "æрбах": 8212,
      "æрбаиу": 8213,
      "æрбæстон": 8214,
      "æрцæуа": 8215,
      "æрцыды": 8216,
      "æрфыст": 8217,
      "æркæсын": 8218,
      "æрбадзырд": 8219,
      "æрцæуой": 8220,
      "æрдыгæй": 8221,
      "æрфысты": 8222,
      "æркасты": 8223,
      "уывз": 8224,
      "адтæ": 8225,
      "адан": 8226,
      "аддж": 8227,
      "адæмæй": 8228,
      "адих": 8229,
      "адугъ": 8230,
      "сттæ": 8231,
      "стам": 8232,
      "стимæ": 8233,
      "стов": 8234,
      "стве": 8235,
      "стойы": 8236,
      "арен": 8237,
      "арат": 8238,
      "арæйы": 8239,
      "арму": 8240,
      "арттæн": 8241,
      "ынæдзух": 8242,
      "æмæг": 8243,
      "ракæн": 8244,
      "раль": 8245,
      "ракодтой": 8246,
      "рагæй": 8247,
      "рацæудзæн": 8248,
      "ратæдзæн": 8249,
      "дзу": 8250,
      "дзха": 8251,
      "дзæрæны": 8252,
      "ахх": 8253,
      "ахæс": 8254,
      "аххуыс": 8255,
      "ахызт": 8256,
      "аххосæй": 8257,
      "инджы": 8258,
      "инсп": 8259,
      "иникæйы": 8260,
      "инстру": 8261,
      "иннов": 8262,
      "инбур": 8263,
      "инæлар": 8264,
      "информат": 8265,
      "агах": 8266,
      "аген": 8267,
      "агег": 8268,
      "агайдта": 8269,
      "агуывз": 8270,
      "æстыл": 8271,
      "æсæдæ": 8272,
      "енс": 8273,
      "енци": 8274,
      "енкой": 8275,
      "орæйы": 8276,
      "ортæн": 8277,
      "оримæ": 8278,
      "ань": 8279,
      "анин": 8280,
      "аним": 8281,
      "анова": 8282,
      "аниты": 8283,
      "анстæ": 8284,
      "анке": 8285,
      "аннæг": 8286,
      "джа": 8287,
      "джид": 8288,
      "джеоргуыбайы": 8289,
      "джикы": 8290,
      "атты": 8291,
      "атур": 8292,
      "аттæй": 8293,
      "атайы": 8294,
      "атти": 8295,
      "атря": 8296,
      "алтæй": 8297,
      "алкæй": 8298,
      "айста": 8299,
      "айти": 8300,
      "дыхæй": 8301,
      "дызæр": 8302,
      "дыдта": 8303,
      "æмиу": 8304,
      "æмныхас": 8305,
      "æмкусджытæ": 8306,
      "æмахаст": 8307,
      "æмавтор": 8308,
      "æмаразæг": 8309,
      "æмуæз": 8310,
      "æмкусджыты": 8311,
      "æмцæдисон": 8312,
      "æмахастытæ": 8313,
      "æмхъæлæс": 8314,
      "æмкусджытимæ": 8315,
      "æмзæрдион": 8316,
      "æмахастытæм": 8317,
      "æмгъуыды": 8318,
      "цит": 8319,
      "æлд": 8320,
      "æлтæ": 8321,
      "æлттæ": 8322,
      "иками": 8323,
      "икертæ": 8324,
      "икавказ": 8325,
      "теракт": 8326,
      "текæйы": 8327,
      "тели": 8328,
      "телем": 8329,
      "тезгъ": 8330,
      "тайы": 8331,
      "ома": 8332,
      "омийы": 8333,
      "омаренко": 8334,
      "ивæн": 8335,
      "ивын": 8336,
      "ивæг": 8337,
      "иваз": 8338,
      "ивгæ": 8339,
      "ивыны": 8340,
      "æхуы": 8341,
      "æхст": 8342,
      "æххæсты": 8343,
      "ныб": 8344,
      "ныл": 8345,
      "ныйы": 8346,
      "ныхæстæй": 8347,
      "нышенко": 8348,
      "ныхæстимæ": 8349,
      "æткъах": 8350,
      "азахъхъ": 8351,
      "азгай": 8352,
      "аздзыд": 8353,
      "азæлд": 8354,
      "сима": 8355,
      "систой": 8356,
      "симен": 8357,
      "ситемæйы": 8358,
      "цыди": 8359,
      "цырен": 8360,
      "цыхт": 8361,
      "оли": 8362,
      "олон": 8363,
      "олимпи": 8364,
      "уро": 8365,
      "уров": 8366,
      "урæтæ": 8367,
      "хъаг": 8368,
      "хъаты": 8369,
      "хъалмы": 8370,
      "хъобай": 8371,
      "огре": 8372,
      "оград": 8373,
      "диф": 8374,
      "ентон": 8375,
      "ентæн": 8376,
      "ахуырæн": 8377,
      "ахуыргæ": 8378,
      "ахуырдзауы": 8379,
      "прест": 8380,
      "прогре": 8381,
      "ауæй": 8382,
      "ауагъта": 8383,
      "æдмæ": 8384,
      "æдтыл": 8385,
      "æдтимæ": 8386,
      "одтæ": 8387,
      "одæй": 8388,
      "сæнус": 8389,
      "реш": 8390,
      "рета": 8391,
      "реаб": 8392,
      "реалист": 8393,
      "реакци": 8394,
      "религ": 8395,
      "реконстру": 8396,
      "ректо": 8397,
      "куп": 8398,
      "кую": 8399,
      "куст": 8400,
      "кулова": 8401,
      "рыгон": 8402,
      "рыкаты": 8403,
      "бафысс": 8404,
      "бафи": 8405,
      "бацæуæг": 8406,
      "бакуыста": 8407,
      "бафыст": 8408,
      "бакусдзысты": 8409,
      "бафысгæйæ": 8410,
      "бафæдзæхста": 8411,
      "æвæры": 8412,
      "æвдæй": 8413,
      "æвджид": 8414,
      "конферен": 8415,
      "конкре": 8416,
      "уденты": 8417,
      "хайæдтæ": 8418,
      "хайæдтæй": 8419,
      "хайæдтыл": 8420,
      "ЦИГС": 8421,
      "истæн": 8422,
      "истика": 8423,
      "истрацийы": 8424,
      "оныл": 8425,
      "уналон": 8426,
      "унеж": 8427,
      "унверси": 8428,
      "гæнджытæн": 8429,
      "гæнæты": 8430,
      "гæнджытæй": 8431,
      "гæнæтыл": 8432,
      "атыгъд": 8433,
      "къа": 8434,
      "къал": 8435,
      "къай": 8436,
      "къæл": 8437,
      "къуыд": 8438,
      "къайы": 8439,
      "къру": 8440,
      "къуыл": 8441,
      "къаннæг": 8442,
      "спон": 8443,
      "спул": 8444,
      "проек": 8445,
      "протон": 8446,
      "профсоюзы": 8447,
      "простран": 8448,
      "прокуратурæйы": 8449,
      "сыф": 8450,
      "сыты": 8451,
      "сырæзты": 8452,
      "сыфтæ": 8453,
      "сыхаг": 8454,
      "сымæртæ": 8455,
      "гъы": 8456,
      "гъуым": 8457,
      "æууæнд": 8458,
      "изи": 8459,
      "изæр": 8460,
      "изма": 8461,
      "измæй": 8462,
      "изертæ": 8463,
      "изатор": 8464,
      "изация": 8465,
      "изнь": 8466,
      "фесты": 8467,
      "фесгуыхт": 8468,
      "тæйæ": 8469,
      "ирæйы": 8470,
      "ирхæфсæн": 8471,
      "фæды": 8472,
      "фæцыдысты": 8473,
      "фæкæнынц": 8474,
      "фæцæуынц": 8475,
      "фæкæнæм": 8476,
      "фæиуварс": 8477,
      "фæкъордтæ": 8478,
      "архайгæйæ": 8479,
      "архайджытæй": 8480,
      "исгæйæ": 8481,
      "исынæн": 8482,
      "иузæрдион": 8483,
      "овон": 8484,
      "ович": 8485,
      "ование": 8486,
      "гæды": 8487,
      "хастой": 8488,
      "кульп": 8489,
      "культу": 8490,
      "ссар": 8491,
      "ссивон": 8492,
      "ссуар": 8493,
      "ссоналон": 8494,
      "ологты": 8495,
      "Алла": 8496,
      "ацимæ": 8497,
      "ацийæн": 8498,
      "авиты": 8499,
      "авая": 8500,
      "науку": 8501,
      "рдгæй": 8502,
      "фæлло": 8503,
      "фæлгъуы": 8504,
      "донор": 8505,
      "зонæг": 8506,
      "ппинг": 8507,
      "ппайдта": 8508,
      "сынæн": 8509,
      "сынæй": 8510,
      "ито": 8511,
      "сандры": 8512,
      "æнымæц": 8513,
      "æрдæджы": 8514,
      "уæллаг": 8515,
      "уæлцъары": 8516,
      "æттыл": 8517,
      "ема": 8518,
      "емы": 8519,
      "бынæй": 8520,
      "бынтæн": 8521,
      "бынтæм": 8522,
      "бынатыл": 8523,
      "разæй": 8524,
      "развæл": 8525,
      "тыхы": 8526,
      "тыхст": 8527,
      "тыхтæй": 8528,
      "тыхстыл": 8529,
      "туры": 8530,
      "турон": 8531,
      "турæй": 8532,
      "паддзахæдты": 8533,
      "ахуыргæнгæйæ": 8534,
      "ахуыргæнинаг": 8535,
      "цыдæн": 8536,
      "Аланæ": 8537,
      "Аланйæ": 8538,
      "Аланраарфæ": 8539,
      "Аланыномæй": 8540,
      "Уыдзæн": 8541,
      "Уыдис": 8542,
      "Уыдысты": 8543,
      "Уырдæм": 8544,
      "еткæй": 8545,
      "етян": 8546,
      "бæраты": 8547,
      "бæркадджын": 8548,
      "стабиль": 8549,
      "кæтæй": 8550,
      "кастæ": 8551,
      "качест": 8552,
      "имат": 8553,
      "имент": 8554,
      "импл": 8555,
      "курсæй": 8556,
      "æхсæндисциплинарон": 8557,
      "адæммæ": 8558,
      "кæйæ": 8559,
      "иле": 8560,
      "илл": 8561,
      "номимæ": 8562,
      "фак": 8563,
      "равд": 8564,
      "равн": 8565,
      "равда": 8566,
      "дисаг": 8567,
      "дискурс": 8568,
      "мысæм": 8569,
      "мызды": 8570,
      "мыдисаг": 8571,
      "уыдтæн": 8572,
      "уыдаид": 8573,
      "рæзой": 8574,
      "рæзынц": 8575,
      "æвзæры": 8576,
      "ерап": 8577,
      "ералова": 8578,
      "2013": 8579,
      "2017": 8580,
      "2014": 8581,
      "2036": 8582,
      "сæрты": 8583,
      "сæртæ": 8584,
      "сæрмæтаг": 8585,
      "фыц": 8586,
      "фырты": 8587,
      "историйæн": 8588,
      "ардæм": 8589,
      "фæсид": 8590,
      "бæлли": 8591,
      "бæлæсты": 8592,
      "тетикон": 8593,
      "проекттимæ": 8594,
      "клоун": 8595,
      "добро": 8596,
      "докд": 8597,
      "дотели": 8598,
      "тоновон": 8599,
      "фæрсæн": 8600,
      "фæрынчын": 8601,
      "цæуджытæ": 8602,
      "мæйыл": 8603,
      "куыстытæй": 8604,
      "куыстытæм": 8605,
      "куыстытыл": 8606,
      "хигъд": 8607,
      "хиæмбарынады": 8608,
      "тæгцæуæг": 8609,
      "ногдæр": 8610,
      "ноггонд": 8611,
      "ногдзинадæн": 8612,
      "дзинæдтимæ": 8613,
      "скъолайæн": 8614,
      "рагал": 8615,
      "рагагъоммæ": 8616,
      "рагамынд": 8617,
      "рагзам": 8618,
      "федерацийы": 8619,
      "экологтæ": 8620,
      "экспозицийы": 8621,
      "кадр": 8622,
      "кадав": 8623,
      "уагмæ": 8624,
      "уагыл": 8625,
      "уагахасты": 8626,
      "регоионы": 8627,
      "регистрацийы": 8628,
      "»,—": 8629,
      "куыстдæттæ": 8630,
      "куыстдæттыны": 8631,
      "культурæмæ": 8632,
      "профессоналон": 8633,
      "бæстæтимæ": 8634,
      "формæ": 8635,
      "хæстмæ": 8636,
      "байхъусын": 8637,
      "баййаф": 8638,
      "гæнæнг": 8639,
      "полк": 8640,
      "полу": 8641,
      "ранг": 8642,
      "уынæг": 8643,
      "уыной": 8644,
      "уынынц": 8645,
      "фæндæгты": 8646,
      "фæзыл": 8647,
      "уæфтæй": 8648,
      "æрыздæх": 8649,
      "æрымысын": 8650,
      "Къæй": 8651,
      "Къуыр": 8652,
      "абстра": 8653,
      "абстракт": 8654,
      "хæсс": 8655,
      "хæсмæ": 8656,
      "хæсдзæн": 8657,
      "хæслæвæр": 8658,
      "хæссынц": 8659,
      "ради": 8660,
      "радмæ": 8661,
      "университеттæй": 8662,
      "Дзера": 8663,
      "Дзыллон": 8664,
      "Дзахаты": 8665,
      "Дзантемы": 8666,
      "ДзИФ": 8667,
      "Дзамбол": 8668,
      "Дзатти": 8669,
      "æнгуз": 8670,
      "дæсгай": 8671,
      "роим": 8672,
      "россий": 8673,
      "æвæрыны": 8674,
      "уæрæсеон": 8675,
      "ское": 8676,
      "скорпораци": 8677,
      "техникæйы": 8678,
      "техникты": 8679,
      "техникæтæ": 8680,
      "руж": 8681,
      "фадгуы": 8682,
      "ферхæм": 8683,
      "республикæйæн": 8684,
      "афф": 8685,
      "афты": 8686,
      "афтек": 8687,
      "ологии": 8688,
      "политолог": 8689,
      "политологи": 8690,
      "политологтæ": 8691,
      "ратьев": 8692,
      "райрæзын": 8693,
      "райрæзтæй": 8694,
      "парк": 8695,
      "партæ": 8696,
      "ахизын": 8697,
      "егты": 8698,
      "асферæйы": 8699,
      "аскъуыд": 8700,
      "евайы": 8701,
      "евскийы": 8702,
      "европ": 8703,
      "хайыл": 8704,
      "экономика": 8705,
      "экономисттæ": 8706,
      "экономистты": 8707,
      "спортæн": 8708,
      "ныхасгæнгæйæ": 8709,
      "регионе": 8710,
      "Коняхины": 8711,
      "байгоммæ": 8712,
      "зынынц": 8713,
      "зындзинадыл": 8714,
      "зындзинæдтæй": 8715,
      "зындзинæдтæм": 8716,
      "дзаутæн": 8717,
      "дæсныйæдтæй": 8718,
      "цауадон": 8719,
      "цаутæм": 8720,
      "арæзтадон": 8721,
      "педагогтæ": 8722,
      "педагогтæм": 8723,
      "педагогикæ": 8724,
      "рономийы": 8725,
      "программон": 8726,
      "поративон": 8727,
      "потре": 8728,
      "ахъхъæнæджы": 8729,
      "акттæ": 8730,
      "актер": 8731,
      "актертæ": 8732,
      "актерты": 8733,
      "активы": 8734,
      "кусдзыстæм": 8735,
      "ийты": 8736,
      "Ахмад": 8737,
      "дыстадон": 8738,
      "рауад": 8739,
      "кафедрæты": 8740,
      "базилæн": 8741,
      "ыркин": 8742,
      "джиппинг": 8743,
      "сеппæтæн": 8744,
      "сессуар": 8745,
      "Стипенди": 8746,
      "Ступень": 8747,
      "Студенты": 8748,
      "Строим": 8749,
      "хъæбаты": 8750,
      "хъæпæр": 8751,
      "министраци": 8752,
      "естæ": 8753,
      "ессæ": 8754,
      "дурæнусы": 8755,
      "оциттæ": 8756,
      "æхицауадон": 8757,
      "иртасæнтыл": 8758,
      "иртасæнтимæ": 8759,
      "здоров": 8760,
      "здавая": 8761,
      "ахуырадыл": 8762,
      "архайджытæм": 8763,
      "ицимæ": 8764,
      "матч": 8765,
      "ноджы": 8766,
      "оргкомитет": 8767,
      "акк": 8768,
      "аков": 8769,
      "аказы": 8770,
      "акова": 8771,
      "аксессуар": 8772,
      "бадæттæг": 8773,
      "æрмæгæн": 8774,
      "æрмæджытимæ": 8775,
      "æрмæджытыл": 8776,
      "фыццагдæр": 8777,
      "Кавказмæ": 8778,
      "æмбæхсæн": 8779,
      "æмбæстаг": 8780,
      "бындурæн": 8781,
      "Уæлрадон": 8782,
      "Хъæр": 8783,
      "Хъусын": 8784,
      "ХъБПУ": 8785,
      "Хъазахъхъ": 8786,
      "Хъахъхъæнæджы": 8787,
      "зæрдæты": 8788,
      "зæрдæйæ": 8789,
      "практикæмæ": 8790,
      "рауагътой": 8791,
      "рауагъдтæ": 8792,
      "рауагъдæн": 8793,
      "спецназ": 8794,
      "хуыздæрмæ": 8795,
      "хуыздæртæй": 8796,
      "программæимæ": 8797,
      "физик": 8798,
      "физкультур": 8799,
      "физико": 8800,
      "æвæрдты": 8801,
      "Архайдта": 8802,
      "умное": 8803,
      "фарн": 8804,
      "фарс": 8805,
      "фарстой": 8806,
      "фарсимæ": 8807,
      "фарсийы": 8808,
      "тип": 8809,
      "типин": 8810,
      "осян": 8811,
      "осетин": 8812,
      "бынатимæ": 8813,
      "опед": 8814,
      "опеди": 8815,
      "хæдтой": 8816,
      "тырной": 8817,
      "елаты": 8818,
      "еллæтæ": 8819,
      "ысоны": 8820,
      "суæгъд": 8821,
      "аныгъуыл": 8822,
      "уавæрæй": 8823,
      "уавæртæн": 8824,
      "уавæрыл": 8825,
      "уавæртимæ": 8826,
      "æххуысыл": 8827,
      "медиайы": 8828,
      "медиатыгъд": 8829,
      "медиасферæйы": 8830,
      "окол": 8831,
      "ократ": 8832,
      "оккуп": 8833,
      "зонынмæ": 8834,
      "зонындзинæдтæм": 8835,
      "специф": 8836,
      "хатдзæгты": 8837,
      "хатдзæгтæн": 8838,
      "æмбырдмæ": 8839,
      "сарæзтæн": 8840,
      "дтыты": 8841,
      "хæрæндон": 8842,
      "фæстæдæр": 8843,
      "ацыдис": 8844,
      "мето": 8845,
      "методи": 8846,
      "бастдзинæдтыл": 8847,
      "органтæм": 8848,
      "органтимæ": 8849,
      "органеллæтæ": 8850,
      "бирæнымæц": 8851,
      "улы": 8852,
      "минæвæрттæм": 8853,
      "разамонджытимæ": 8854,
      "фембæлын": 8855,
      "фембæлдысты": 8856,
      "фембæлдтытæ": 8857,
      "эксперты": 8858,
      "кæсдзæн": 8859,
      "кæсæджы": 8860,
      "кæсæгмæ": 8861,
      "сæрдарты": 8862,
      "сæрдарæй": 8863,
      "сæрдарДж": 8864,
      "терскæйаг": 8865,
      "терских": 8866,
      "дæгтæн": 8867,
      "иумæйагкомандон": 8868,
      "откры": 8869,
      "æндæрты": 8870,
      "æндæртимæ": 8871,
      "Ирыстонмæ": 8872,
      "Ирыстонимæ": 8873,
      "равдыстæй": 8874,
      "фидарæй": 8875,
      "хæдивджытæ": 8876,
      "специалисттæм": 8877,
      "системæйæн": 8878,
      "Студенттæй": 8879,
      "националь": 8880,
      "æрдзæй": 8881,
      "формалон": 8882,
      "формацион": 8883,
      "сæргълæууæгЦуциты": 8884,
      "командæмæ": 8885,
      "историческ": 8886,
      "хъуыдытæй": 8887,
      "Резуан": 8888,
      "ламской": 8889,
      "нац": 8890,
      "направлен": 8891,
      "нацты": 8892,
      "дунеты": 8893,
      "дунейон": 8894,
      "дународ": 8895,
      "нывы": 8896,
      "нывæз": 8897,
      "нывгæнджытæ": 8898,
      "райсынц": 8899,
      "райсыныл": 8900,
      "хæдивæгАндрей": 8901,
      "вæллон": 8902,
      "социологийы": 8903,
      "астник": 8904,
      "астрономийы": 8905,
      "аивдæр": 8906,
      "бахау": 8907,
      "бахус": 8908,
      "бахгæд": 8909,
      "бахызт": 8910,
      "баххуысы": 8911,
      "бахахх": 8912,
      "езы": 8913,
      "есть": 8914,
      "естици": 8915,
      "ества": 8916,
      "кандидатты": 8917,
      "сфæлдисын": 8918,
      "альный": 8919,
      "бакастыты": 8920,
      "æмгуыстгæнджытæм": 8921,
      "тæрхонд": 8922,
      "олимпиадæты": 8923,
      "олимпиадæтæ": 8924,
      "кълæстæ": 8925,
      "технологитыл": 8926,
      "сержан": 8927,
      "цæрдзысты": 8928,
      "цæрынц": 8929,
      "цæрынæн": 8930,
      "бавгъау": 8931,
      "баввахс": 8932,
      "бавнæл": 8933,
      "бавæрæны": 8934,
      "хъомылгæнæн": 8935,
      "хъомыладæй": 8936,
      "хъомыладыл": 8937,
      "хъомыладмæ": 8938,
      "горий": 8939,
      "махмæ": 8940,
      "пайдаимæ": 8941,
      "пайдакæнынады": 8942,
      "æхсæнадты": 8943,
      "æхсæнадимæ": 8944,
      "æхсæнадтимæ": 8945,
      "центртимæ": 8946,
      "рухсы": 8947,
      "баллтæ": 8948,
      "стырдæр": 8949,
      "райрæзтыты": 8950,
      "райрæзтытæ": 8951,
      "райрæзтытыл": 8952,
      "обов": 8953,
      "обрит": 8954,
      "оборон": 8955,
      "образов": 8956,
      "цæстдарæг": 8957,
      "дипломы": 8958,
      "барынад": 8959,
      "хъæппæристæн": 8960,
      "бирæтæ": 8961,
      "Республикæмæ": 8962,
      "Республикæйæ": 8963,
      "сфæлдыстадæй": 8964,
      "сфæлдыстадмæ": 8965,
      "ингӕй": 8966,
      "амонынæн": 8967,
      "къæпхæнæй": 8968,
      "къæпхæнимæ": 8969,
      "æппæтдунеон": 8970,
      "зæгъæн": 8971,
      "къордты": 8972,
      "къордæй": 8973,
      "ематикон": 8974,
      "Æрмæг": 8975,
      "Æртыккаг": 8976,
      "Æркæсдзысты": 8977,
      "Æрдзон": 8978,
      "Фæскавказ": 8979,
      "æмвæзæй": 8980,
      "æмвæзадæй": 8981,
      "хъæуты": 8982,
      "хъæудзæн": 8983,
      "директорты": 8984,
      "бацу": 8985,
      "бацагайдта": 8986,
      "гæнæгæн": 8987,
      "гæнæгтæ": 8988,
      "хæстыты": 8989,
      "Мадзалмæ": 8990,
      "IIÆппæтуæрæсеон": 8991,
      "лекцитæм": 8992,
      "равзæрстыл": 8993,
      "диссертацитыл": 8994,
      "офтальм": 8995,
      "æрвиты": 8996,
      "райсгæ": 8997,
      "цæуынæн": 8998,
      "хæрзаив": 8999,
      "104": 9000,
      "105": 9001,
      "отонин": 9002,
      "фæсте": 9003,
      "фæстиуæг": 9004,
      "докладмæ": 9005,
      "докладтимæ": 9006,
      "карто": 9007,
      "сомыбæрц": 9008,
      "хицауæн": 9009,
      "хицауиуæгады": 9010,
      "математик": 9011,
      "методтæй": 9012,
      "методикæйы": 9013,
      "методикæтæ": 9014,
      "каталит": 9015,
      "уæдмæ": 9016,
      "ахуыргæнæгмæ": 9017,
      "деканГуытъиаты": 9018,
      "дарты": 9019,
      "дардзæн": 9020,
      "дарут": 9021,
      "традицийы": 9022,
      "уæнгтæн": 9023,
      "уæнгтæм": 9024,
      "факультеттæй": 9025,
      "литературы": 9026,
      "литературæзон": 9027,
      "æппытæ": 9028,
      "Институ": 9029,
      "Институт": 9030,
      "Инессæ": 9031,
      "компаниты": 9032,
      "комптоновон": 9033,
      "хицæндзинæдты": 9034,
      "Пржев": 9035,
      "убев": 9036,
      "æртæккæ": 9037,
      "æртæхаттон": 9038,
      "дисынц": 9039,
      "фæзынын": 9040,
      "фæзындысты": 9041,
      "фæзындты": 9042,
      "фæзындæн": 9043,
      "традициты": 9044,
      "традицимæ": 9045,
      "традицитæм": 9046,
      "198": 9047,
      "1920": 9048,
      "1952": 9049,
      "бинонтæм": 9050,
      "юристты": 9051,
      "юристтæн": 9052,
      "æрæмбырдуæв": 9053,
      "æнтыстджындæрæй": 9054,
      "коллекцийæ": 9055,
      "уатон": 9056,
      "темæмæ": 9057,
      "къабазмæ": 9058,
      "класстæй": 9059,
      "иченко": 9060,
      "координ": 9061,
      "сайт": 9062,
      "профессоры": 9063,
      "зынгæдæр": 9064,
      "дæсныйадæн": 9065,
      "Мæскуымæ": 9066,
      "Мæскуыйæ": 9067,
      "Хуссайраг": 9068,
      "бахаст": 9069,
      "бахауын": 9070,
      "дæттæм": 9071,
      "этапты": 9072,
      "æнæорганикон": 9073,
      "æнæформалон": 9074,
      "зæрдæбынæй": 9075,
      "адæмыхæттытимæ": 9076,
      "мира": 9077,
      "арфæтимæ": 9078,
      "дзæвгар": 9079,
      "динмæ": 9080,
      "диныл": 9081,
      "корпоративон": 9082,
      "ужбæйы": 9083,
      "финалы": 9084,
      "финалмæ": 9085,
      "кусджытæм": 9086,
      "ституцион": 9087,
      "æбу": 9088,
      "монографийы": 9089,
      "монизация": 9090,
      "цалынмæ": 9091,
      "цалцæджы": 9092,
      "ахуырдзаутимæ": 9093,
      "курдиатмæ": 9094,
      "археолог": 9095,
      "археологтæ": 9096,
      "Марина": 9097,
      "Марафоны": 9098,
      "квиз": 9099,
      "квест": 9100,
      "квотæ": 9101,
      "бонтыацæудзæн": 9102,
      "баиугонд": 9103,
      "проблем": 9104,
      "проблемат": 9105,
      "хъæппæрисыл": 9106,
      "180": 9107,
      "Антон": 9108,
      "Анжел": 9109,
      "Антипин": 9110,
      "Цыганы": 9111,
      "Цымыдисаг": 9112,
      "фæзуатмæ": 9113,
      "Фæсивдæн": 9114,
      "Ирбег": 9115,
      "Ирбек": 9116,
      "банты": 9117,
      "график": 9118,
      "гражд": 9119,
      "графикон": 9120,
      "зылдон": 9121,
      "хисæр": 9122,
      "кæцытæй": 9123,
      "Современ": 9124,
      "моделы": 9125,
      "модулы": 9126,
      "сæххæстæн": 9127,
      "сæххæстмæ": 9128,
      "фронтæн": 9129,
      "антолог": 9130,
      "антроп": 9131,
      "етеринарон": 9132,
      "алыхуызондзинад": 9133,
      "системæмæ": 9134,
      "системæтæ": 9135,
      "Фæсивæдæн": 9136,
      "службæгæн": 9137,
      "охаты": 9138,
      "снысанимæ": 9139,
      "инæгтæм": 9140,
      "ныффысс": 9141,
      "цæттæдзинадæй": 9142,
      "советты": 9143,
      "советмæ": 9144,
      "советтимæ": 9145,
      "советник": 9146,
      "йæхицæн": 9147,
      "йæхицæй": 9148,
      "дзурæм": 9149,
      "æмбарынгæнæн": 9150,
      "бахъахъхъæныныл": 9151,
      "процессыл": 9152,
      "вариан": 9153,
      "вариант": 9154,
      "хъахъхъæнæм": 9155,
      "хъахъхъæной": 9156,
      "хъахъхъæндзысты": 9157,
      "хъахъхъæнджыты": 9158,
      "хъахъхъæнгæйæ": 9159,
      "хъахъхъæнæджы": 9160,
      "бæлвырддæр": 9161,
      "бæлвырддзинад": 9162,
      "фæлтæрæй": 9163,
      "фæлтæртæн": 9164,
      "командæбынат": 9165,
      "воды": 9166,
      "дамент": 9167,
[...]
